/**
  ******************************************************************************
  * @file    network_data_params.c
  * @author  AST Embedded Analytics Research Platform
  * @date    2026-02-08T21:58:45+0700
  * @brief   AI Tool Automatic Code Generator for Embedded NN computing
  ******************************************************************************
  * Copyright (c) 2026 STMicroelectronics.
  * All rights reserved.
  *
  * This software is licensed under terms that can be found in the LICENSE file
  * in the root directory of this software component.
  * If no LICENSE file comes with this software, it is provided AS-IS.
  ******************************************************************************
  */

#include "network_data_params.h"


/**  Activations Section  ****************************************************/
ai_handle g_network_activations_table[1 + 2] = {
  AI_HANDLE_PTR(AI_MAGIC_MARKER),
  AI_HANDLE_PTR(NULL),
  AI_HANDLE_PTR(AI_MAGIC_MARKER),
};




/**  Weights Section  ********************************************************/
AI_ALIGNED(32)
const ai_u64 s_network_weights_array_u64[6257] = {
  0xbf3be5cbU, 0xbefd20dcU, 0x3f1041d3bf475d71U, 0xbf90e890bfa0daabU,
  0xbf485620U, 0xbed356a1U, 0xbf0c346380000000U, 0xbe60727abf0a2c15U,
  0x80000000bf313b8dU, 0xbe2ddf5980000000U, 0x3e5a47923eaa0828U, 0x3ee14f2d3e13cf75U,
  0xbde528e7U, 0x3e2bc7d5be5cfb69U, 0xbf0bc5173e886105U, 0x3f3174833ece1bafU,
  0xbe18476dbde2acecU, 0xbec6147a3ea4c30dU, 0x80000000U, 0x8000000080000000U,
  0xbf1bc971bec45075U, 0x3f3065eebe90d288U, 0x80000000bf036b56U, 0x3e3644b1be0ac7e3U,
  0x3f1883673ead74bfU, 0x3de347533ebc4c2fU, 0x3e7e30b100000000U, 0xbf7df8babf33f3daU,
  0x3fadc04dbf24c0bfU, 0xbf38c5553ef897d1U, 0x3f6f05083f0a351eU, 0x80000000bf483b54U,
  0x80000000U, 0x0U, 0x8000000080000000U, 0xbef6b7c180000000U,
  0xbf6f62d2bf06cb02U, 0x3ec56d7c3f52adb7U, 0xbff3a3f83f80fb43U, 0x3f5ca68780000000U,
  0x3f283f2cU, 0x8000000000000000U, 0xbefa63d6U, 0x3e53737b00000000U,
  0x800000003e54de04U, 0x3fa91cb0bf7da126U, 0x3f8b23313ea23e0cU, 0x3e9d5799beafeefaU,
  0x3fa337a94001ea2cU, 0x800000003f6e0462U, 0xbf818f673f6d8da2U, 0xbfbb230980000000U,
  0xbfd0696dbecdb46cU, 0xbf8140bfbf85c2d8U, 0x3f975d60U, 0xbf1696283fc45226U,
  0x3ef11200U, 0xbf767f1ebf4fa6ecU, 0x3e97a6b3bf95cf8bU, 0x3ee2c0203f2bb89dU,
  0x3e86240580000000U, 0xbec32c293f14b4eaU, 0xbe743b623eabaa15U, 0x3edb81353e8888d2U,
  0x3f5c034d00000000U, 0x80000000bedf1581U, 0xbfa2933c00000000U, 0xbf532f27bf3ef11cU,
  0xbf16fbc600000000U, 0xbeffbb9e80000000U, 0xbf80630500000000U, 0x3fa6d535bf2158ddU,
  0xbde4edc83eb49b2fU, 0x3cf2c20c3d7ab006U, 0xbdba1631be8ec862U, 0x3d77031c3e5a0b60U,
  0xbdca70c2be5d4434U, 0x3df9b72bbf057a9fU, 0xbe535decbcc7130aU, 0x3e16bcc63e2bd432U,
  0xbe20da1f3e235165U, 0x80000000bdf5d416U, 0xbe8d415cbe9c0d35U, 0xbe1d9c36be11d011U,
  0x3d899ffe80000000U, 0x0U, 0x3dd60f2ebdf828e7U, 0xbe4ca54dU,
  0x0U, 0x3e935b5abe1dfe99U, 0x3e2464fe3e25e146U, 0x3e37102c00000000U,
  0x3e45aac43e4773d8U, 0xbe54d03080000000U, 0x3e093762bdf6435bU, 0xbea8a858be65b107U,
  0xbe392cbbbe22680cU, 0x3e11bf9d3e5460d0U, 0x0U, 0xbe697a6f80000000U,
  0x80000000be0ae8c8U, 0x0U, 0xbe9b9a0700000000U, 0xbea362b2bed088e4U,
  0x3e6c17933e21451dU, 0xbe805c5fbdd2f75fU, 0xbe0d1cc400000000U, 0x800000003e8787b8U,
  0x3e53613780000000U, 0x800000003e640fefU, 0xbe2ede36be3d38ffU, 0x8000000080000000U,
  0x3daaa00500000000U, 0x80000000bdc7f0a9U, 0x800000003e0a507dU, 0x8000000080000000U,
  0x3e16fadc3dc1fea9U, 0x3e281ff53e514bfcU, 0xbded9822be77e108U, 0x3e4a2c4fU,
  0xbe0847ca3eb52f96U, 0xbdbfd456bd8da97eU, 0x800000003e1e9761U, 0x80000000bdd8d144U,
  0x80000000U, 0xbea5902e80000000U, 0xbd8e03203e694c7bU, 0x3e13886cbe867443U,
  0x3e3e2f46U, 0xbdd08245be67882eU, 0x3da482f13e09e483U, 0xbe1b4c13be82cf04U,
  0xbe8eca4d3e9e4d05U, 0xbea2063980000000U, 0xbe4fc6193eb137c0U, 0xbe44bbc600000000U,
  0xbee0b519bdfac332U, 0x3e68d1a33e8b15feU, 0x80000000be267c53U, 0x3ead1280bdedbbc5U,
  0x3e77bd243e995becU, 0xbd9345753e2022d7U, 0x3e113d54U, 0x3e46c144be549dcfU,
  0xbe5bc4be3e370b46U, 0xbe963e6abe17acb8U, 0xbe4276983e059b12U, 0xbe910667be32fea9U,
  0xbd75da1f3e068594U, 0xbe7661833e8b35a2U, 0x8000000080000000U, 0x8000000080000000U,
  0x0U, 0x0U, 0x0U, 0x0U,
  0x0U, 0x0U, 0x0U, 0x0U,
  0xbfa4489bbf8d950dU, 0xbf82987c3fde526aU, 0x8000000000000000U, 0x0U,
  0x80000000bf8d2f10U, 0x3fccac0c3fd0f21fU, 0x3fcf585bbf2d0cfaU, 0x3f434990U,
  0x8000000080000000U, 0xbf612bd8bfc74476U, 0x3f3a540cbf9deec4U, 0x80000000U,
  0x3f4eaf1cbfda95bcU, 0x80000000U, 0xbf96654cbfece907U, 0xbf948a293fbb934fU,
  0xbee45cb1bf83a0d6U, 0x3f3cc2293f1eb195U, 0xbf5aee5e3f3f6fa0U, 0x80000000beea411bU,
  0x80000000bf2d9251U, 0x8000000000000000U, 0x3f81c63cbf2ffa2cU, 0x80000000bfab27f5U,
  0xbf87fabcbf6da69eU, 0xbec40a40bf24a363U, 0x3f257d26bf2ffa12U, 0xbf265d23U,
  0x80000000bfae2a48U, 0x3fc8c00780000000U, 0x3ecb324800000000U, 0xbec0a27a00000000U,
  0x8000000000000000U, 0x8000000000000000U, 0x80000000U, 0x800000003e848dfeU,
  0x3f7bebe9U, 0x8000000000000000U, 0x3edeb326bef45da5U, 0x3f4b98c6U,
  0xbee75c92401b6989U, 0xbf8a7d203ec7983bU, 0x3f198c4d3fc6587cU, 0x80000000beb0143aU,
  0x3f13e448U, 0xbee039c8U, 0x3f8a7d5b3f04e3d9U, 0x800000003f9f7a8dU,
  0x3f8e4e07bff79b31U, 0xbff21ac1bf59d5cbU, 0x3f072a7a00000000U, 0xbf02875c80000000U,
  0x80000000bf6b95b2U, 0x3f5bdf6e00000000U, 0x3f8f000ebfc6651cU, 0xbf0b588dbfb60959U,
  0xbf9c59de3f9bcfa7U, 0x3f151df480000000U, 0xbf87a089bf0e3091U, 0x800000003f5a11f8U,
  0x3f9c6a91U, 0x800000004002b683U, 0x3fa071a3bf78590fU, 0xbf0ac51abfbdbe18U,
  0x3f201d9abed3eac3U, 0x3f14b34cU, 0x800000003f6e88e5U, 0x80000000becf9994U,
  0xbec6d049bf66d5d7U, 0x3fa763bf3f0d940fU, 0x3f3ac4d1bf2ededcU, 0xbfc26950U,
  0xbfa2096a80000000U, 0x3f2233d1U, 0xbf6a31a0bf51157aU, 0x80000000bf160832U,
  0x3f8a762d3fba7330U, 0xc0074052bf03c0c5U, 0xbfbc43a180000000U, 0x8000000000000000U,
  0x3ed8c0bdbfc93690U, 0xbfa2b7d080000000U, 0x3fd5fc4c3f38eaaaU, 0x3efbfc50U,
  0x3f2e2327bf30cc5fU, 0x3fbb25f6bf155f95U, 0xbfbbfbb43f840adeU, 0x3f1dff9180000000U,
  0x800000003f94e892U, 0x3f87238100000000U, 0xbf61da90U, 0x80000000bf0e8997U,
  0xbf534f9500000000U, 0xbf365581bfd31cb2U, 0x80000000bfe24c4dU, 0x3f202013bfb83246U,
  0xbf301e69bee00732U, 0xbed5891480000000U, 0xbf1dd876bfcc0feaU, 0x3ed3a6e8U,
  0xbef88bda3f2c3c0aU, 0xbf555259bf5d192cU, 0x3ef9e24e80000000U, 0xbfbf93e9bf0b427aU,
  0x8000000000000000U, 0xbec6e82880000000U, 0xbec97b3c80000000U, 0x3f0b579cU,
  0xbf493002bfa603afU, 0x3ed0384fbf45c8bdU, 0x3f1dbe7b3f9d0ca0U, 0x800000003f812e60U,
  0xbf8f0df300000000U, 0xbf58c1d900000000U, 0x3f32d2febf0dcb35U, 0x800000003efc43f0U,
  0x80000000bf04bb34U, 0xbedb2607bf815e03U, 0x3f84fccdbea98b0fU, 0xbee332fc3ebfca61U,
  0x0U, 0x0U, 0x800000003f831906U, 0xbeab8371U,
  0x800000003eed8effU, 0x3f4c0dd8bea3b190U, 0xbebffb053f3efb16U, 0x3eca205800000000U,
  0x800000003f6822abU, 0x8000000080000000U, 0xbf96088600000000U, 0x800000003fe6092fU,
  0x3ef933cb3f08b8ffU, 0x3fd51ed2bfa12533U, 0xbf433c4d3fa93625U, 0x3f4e237dU,
  0x80000000U, 0xbf891dcabf9a2b68U, 0xbfe3aa44bf0c25b8U, 0x3f26cd65U,
  0x80000000U, 0xbfba4ccfU, 0xbf61cb4a3ed5de07U, 0xbef6f8b880000000U,
  0x800000003f0bded6U, 0x8000000000000000U, 0x3ee2db23bf3e9802U, 0x0U,
  0x80000000U, 0x80000000bfafd5bbU, 0x80000000bf99da0cU, 0x3f40bd9fU,
  0xbef48909U, 0x8000000000000000U, 0x3fe325f33f1f9e3cU, 0x80000000U,
  0x80000000bec25707U, 0x3f59c200U, 0x3f1887c53fa68582U, 0x800000003f29e5a6U,
  0x0U, 0xbf951514bf55ead1U, 0x80000000bfca3a4fU, 0x80000000bfbdae3eU,
  0x3f5a7eaaU, 0xbf9e4e6d00000000U, 0xbfa1b6f600000000U, 0xbf614bfa80000000U,
  0x800000003f3916e7U, 0xbf47c3c400000000U, 0x3fa1af8000000000U, 0x0U,
  0x80000000bf7cd8e1U, 0x3fcd6d013f6c3c29U, 0x3ffaf5a9bf47b64dU, 0xbf32794ec0030bb9U,
  0x80000000U, 0xbf6072a600000000U, 0x3ff4663280000000U, 0xbfb04a2bU,
  0x80000000bfc36fdbU, 0xbf7aa88b80000000U, 0x3f931a31bf642cb3U, 0x80000000bf9c762cU,
  0xbf219d393f436119U, 0x8000000000000000U, 0xbf17afd6bf318f8aU, 0x3fe7cae8U,
  0xbf145dec80000000U, 0x3ec854cf3f86bc59U, 0x3f835d36U, 0x3f1995ee3ec32d09U,
  0x0U, 0x3f6234f3bfac84fdU, 0x400413323ec77999U, 0xbf3f243aU,
  0xbf47da5cbf37b625U, 0x3fba2550be9a52caU, 0xbf613ca4bf232590U, 0xbed592753f3de15bU,
  0x3f9a1763bf99dda4U, 0xc0033c553f970799U, 0xc00bd2fcbf54ec98U, 0x4036eae8U,
  0x800000004021e724U, 0x3ffa677180000000U, 0xbffcc80a3f94e8d9U, 0x800000003fe8f46aU,
  0x3f5b20e3bfbb4a17U, 0xbfe667fd00000000U, 0xbfdb45c9U, 0xbff219baU,
  0xbfa43034U, 0x3f8b426b00000000U, 0x8000000080000000U, 0x3f126a18bf408a10U,
  0x3fc1a09980000000U, 0x3f0f31a03f43e54fU, 0x8000000000000000U, 0x3ef95ab1bf2dee14U,
  0xbf126074bec3fb50U, 0xbf2f2dfb3fce01a0U, 0xbfecc47280000000U, 0xbf753e203f32cefcU,
  0xbfebafcfbfc82ce7U, 0x3f87d5283f2be82eU, 0xbfbc5da280000000U, 0x80000000bf212915U,
  0xbf4968e8U, 0xbf37edb3bfbcadacU, 0x3f2e9e2cbff2ac41U, 0x3fe816dc80000000U,
  0xc063e0deU, 0xc04c25b2U, 0x3fc41b7200000000U, 0x3f81f49aU,
  0x3fbb3020bff07153U, 0xbfd5b4ddc032e3ebU, 0x401bdc6400000000U, 0x3f8a34013f501ba0U,
  0xbfa7b707c012dfb8U, 0x3f9ed4b700000000U, 0x8000000080000000U, 0xc01a1712U,
  0x3fd92ceb3f910ab2U, 0x3f1adb983fcfaf88U, 0x3f850c0dbf9b8c48U, 0x4004f2843f7a18a9U,
  0xbec25c293f85863cU, 0xbec037723f442167U, 0xbf939539be9fb356U, 0xbeda0b69U,
  0x3f6c77b6U, 0x3f56e83d3e88deaaU, 0x3f0d96d73f06cdd0U, 0x800000003f7c92fdU,
  0x3e9e0668beac17e3U, 0xbe51891bbf1df723U, 0x3f2b411c3e110b5aU, 0xbe8fa58ebf1ec085U,
  0xbe883d74be414f52U, 0xbdbc088e3d95c3b6U, 0xbe865dd6bf5852ccU, 0x3e5412f0bec46f64U,
  0xbed247403daa7466U, 0x3e402c933d57904cU, 0x3c71b828bd98515cU, 0x3b6c8120be2bc1dbU,
  0xbe866b303f2b4e7cU, 0x3eaa43e6bf0b1e36U, 0xbf942006bf5921acU, 0x3e20669cbe84d128U,
  0xbd4fe8f93ea9102bU, 0xbe80d6683ea95ef7U, 0x3d7dc0413e1a87aaU, 0x3ea69cb700000000U,
  0x80000000U, 0x3e2d05ac3d9456d6U, 0x3db082a73e06fcabU, 0x3e76d42ebe91c99fU,
  0x3e4084093e24f433U, 0x3e3c60ae3d8fb95aU, 0x80000000be4da349U, 0xbdbfc3db3daa6de0U,
  0x3d886dbcbe01467aU, 0xbe7ffea43e3f872cU, 0x3e52f7f83e3aae24U, 0x3e391e54bd5a3eaeU,
  0x3e660c29be007eecU, 0x80000000be8f0bb5U, 0xbe3c03193e3ac3aaU, 0x3e2d275a3dd7c1e6U,
  0xbe91f1563e91f16fU, 0xbda0e9b1bdc14bf8U, 0x800000003e5990d7U, 0x3e6fd7913e02cdd6U,
  0x80000000be87a904U, 0x3e8086c2U, 0xbe8db5c5be8cc5fdU, 0x3e948f3e3d984342U,
  0x800000003dbb3731U, 0x800000003ea62706U, 0xbe4e98ad3de52078U, 0x3e5eef7f3e05a6b3U,
  0xbda8d841U, 0xbea2fc1ebe53084fU, 0x3e6cad33U, 0xbddfd5c43dbae653U,
  0x3e69506dbe69a916U, 0xbdaf20143e195c45U, 0x3d74e35200000000U, 0xbd93e822U,
  0x3db31425U, 0xbe1693f2be7394e2U, 0xbdc0b07e3d919fafU, 0x3e3f220c3e8f702bU,
  0xbe7f6515be15a4f6U, 0xbe6caab080000000U, 0xbe984213U, 0x3e3a9405be705e11U,
  0x3e6c6ed83e60547aU, 0xbea29afc3e74f18fU, 0xbe7e50e2U, 0xbe2f8eac00000000U,
  0xbd6da13c00000000U, 0x3e9c8bb9bdc7292eU, 0x3e8b9a763dc8dfddU, 0xbe6252b6beaba8b2U,
  0xbe548a1cbe617c97U, 0xbdfadbbfbda09d83U, 0x3ea09a73U, 0xbea3476680000000U,
  0x3e708c3dbe820f92U, 0xbe912ffcbe8b6d0eU, 0xbe73f3ebbe5e676aU, 0x3e612bbfU,
  0xbe16c41780000000U, 0xbe3002e03e26eb4cU, 0xbdb6c5dcbe972acbU, 0x3e3b2912be39646dU,
  0xbe16558fbdb76275U, 0xbe98b65dbd8f0168U, 0x80000000U, 0x3e81e6d23e255992U,
  0x3e1c0a483e9aa5a1U, 0x3ea9b578be16fba4U, 0x3e2dfa0ebe4eba2bU, 0x80000000bea879a9U,
  0x3dd400c93dd0a09bU, 0xbe9e53dc3e9ebab8U, 0xbd80f185U, 0xbeac90f43e4c41edU,
  0xbe0ca8b980000000U, 0xbdce39b9bd9d70c0U, 0x3e7e9c27be8a8aa2U, 0xbddae0233e953719U,
  0xbe892b2f3e53c2f5U, 0xbe156042be8fa658U, 0x800000003e4f4d49U, 0xbe6dfeb8be50aa23U,
  0xbea95effbe9030efU, 0xbe9258673e70b929U, 0x3e4aea103ea8b6b1U, 0x8000000000000000U,
  0xbdaf52163e9d933cU, 0x3e895cca3e984cb5U, 0x3ea58cc200000000U, 0x800000003e93f406U,
  0xbe5121863ea16718U, 0x3ea5c78ebe79bfa4U, 0x80000000be69b75bU, 0x3de377583de6f02fU,
  0x3e929fcf3e917837U, 0xbe69bb99bdd244d2U, 0xbe86d51cbde07bb6U, 0x3e80bade3e1b0277U,
  0x3d86390e3e0562efU, 0x3e9b5ac2be8aafe0U, 0x3e9bc8c0be667b1cU, 0xbdee8aa43d979881U,
  0x3ea6d47c00000000U, 0x3def53b9bd9187afU, 0x3dc705beU, 0xbea95b2c3e8543c7U,
  0x3e199d1dU, 0x3ea3b238bdf7568cU, 0xbd8113aabe8464dfU, 0xbe587832be7650b5U,
  0x8000000000000000U, 0xbe90156080000000U, 0xbe7f496dbea86b54U, 0xbda78badbe729648U,
  0xbe2281143de3b57fU, 0xbe8d531f3e9a5583U, 0x80000000be55592dU, 0xbe94f2903e8ff25aU,
  0xbe1a2f983e9fc125U, 0xbe7171773dd0adcaU, 0x3e043f91be895779U, 0xbe8af0423de6387cU,
  0x3e9dbb9480000000U, 0xbe9729403e7e8918U, 0xbe74094000000000U, 0xbea471a53e817665U,
  0xbe05017cbe0c509cU, 0x3dfd2adc3e971644U, 0xbdca1f0c80000000U, 0x3ea83628be846e87U,
  0x3e9d5b39be3f2200U, 0x3da74e613e35a1acU, 0xbd983b483d7aaad5U, 0xbe574003U,
  0xbe9605113de42627U, 0x3e1a7eb6bdf220f2U, 0xbe26cdd2be98a212U, 0x3dcbc122bd80b41bU,
  0x0U, 0x0U, 0x0U, 0x0U,
  0x0U, 0x0U, 0x0U, 0x0U,
  0x0U, 0x0U, 0x0U, 0x0U,
  0x0U, 0x0U, 0x0U, 0x0U,
  0xbf383273bfb37e0eU, 0xbf78971abf450582U, 0xbfc350c63fc9e618U, 0x3fa2b80780000000U,
  0x3fc20902U, 0x3f19d671bfa310ebU, 0x3f649560bf196f27U, 0x800000003fac60d5U,
  0x3faba2d43f57aae6U, 0xbefb6057bf3b4609U, 0x80000000bfa10072U, 0x3f4b6e93bfb991eeU,
  0xbf168f57bf9df80cU, 0xbfc8f5ceU, 0xbf9a001eU, 0xbfc82e7c3f31da07U,
  0xbf891bab3f45f6faU, 0x3f579342bf6e7c91U, 0x0U, 0x3ec6692b00000000U,
  0x3f4c9b41U, 0x80000000U, 0xbf86008180000000U, 0xbf8725f13f927d16U,
  0x3edd6000bf0fa5c4U, 0x3f8a84623f8298baU, 0x3ed654a5bf15c5b4U, 0xbf518f4ebf7f30fbU,
  0xbf939e8fU, 0x3f8c33d2bf8a4d28U, 0xbf768cc5bf8abdf8U, 0xbf030c1e3f82df88U,
  0xbfa18c91bf4f6952U, 0x800000003fa70735U, 0x3fba7b823fdb7563U, 0x3f99a98980000000U,
  0x3fc2ee3f00000000U, 0x3fc7245b00000000U, 0xbfaae6b23f8d3b46U, 0x3f9b691cbf82b3ebU,
  0x3f978e363f49b8d0U, 0x3fe2e791U, 0x3fc065b4bf218cfcU, 0x3f30f838U,
  0x3fb9eb113f27b45bU, 0x3fc652f33fcbb8ffU, 0xbfed5b59U, 0xbf94075000000000U,
  0x80000000bf7bd075U, 0x3f77f7d7bf6af740U, 0x8000000000000000U, 0x80000000bfcfea0dU,
  0x8000000080000000U, 0x3fec8ea4bfc4cf1aU, 0x3f6d7989c00167ccU, 0x40052c493fcca651U,
  0xc00e3f703fb9d572U, 0x3f62fc9d3fd798bdU, 0x3fb133df3fe355cfU, 0x400ee84cU,
  0xbfd982b5c00bcb4aU, 0x8000000000000000U, 0x80000000bf653650U, 0x4012e2e5bfd8e139U,
  0x8000000000000000U, 0x800000003fed3543U, 0xbfd3c57700000000U, 0x8000000040080c2eU,
  0x3f5052cf4003df43U, 0xbf902deebf5446c5U, 0x80000000U, 0xbfffd3d440057f18U,
  0x8000000000000000U, 0xbfa0c4353f7c4d3eU, 0x3f78016e3f58c5c1U, 0xbfb73d673f688ef3U,
  0x3fa007dc4009d413U, 0xbfff58a93f9c8b7eU, 0xbf61a2bd00000000U, 0xbfd5c04bc01aa88eU,
  0x3fbe7752bf5963a0U, 0x3fa555243fa7266dU, 0xbfa2fefb3fa8e201U, 0xbfb984323fb9719dU,
  0xbfc10eef00000000U, 0xbf6a75533fc19a37U, 0xbfac121dbfa5c80aU, 0x3f94b2ca3f61d7afU,
  0x3fa3c2093fc7a5ffU, 0x3faaccad00000000U, 0xbf8b0bb8c00274a3U, 0x3fbc10d2bff30917U,
  0xbfe64be980000000U, 0xbf5a976b3ff01f27U, 0xbfdea8643f36b576U, 0xbff8685f3f4b69a6U,
  0xbfa4b36bbf693076U, 0x3f3e53cd80000000U, 0xbf9bb34f80000000U, 0xbffc7f3640022cfdU,
  0xc003fa3aU, 0x3fd16aaf00000000U, 0xbf5880843fea9b02U, 0x3f6b27ba3f836363U,
  0xbfb5cb063fbc4be2U, 0x80000000U, 0x3f752cd6U, 0x3f725bbb3fb75cecU,
  0x3fa2777100000000U, 0x80000000bf7e7322U, 0xbfb559673fafbec7U, 0x3f87aceeU,
  0xbf89fa9d80000000U, 0x3f21f991bf2ae75fU, 0x3fa570b4bfa0238fU, 0x8000000000000000U,
  0xbf67232cU, 0x3fb9c51ebf57c57aU, 0x3f4ce23400000000U, 0xbf9c4504U,
  0xbfb1aee8bf968668U, 0x3f0841b5U, 0xbf4cb4733f95dcebU, 0x8000000000000000U,
  0x800000003f87b6e9U, 0xbfb82167bf00577aU, 0xbf436ca700000000U, 0x3f1c8eca3f996dfcU,
  0x80000000bf8eff96U, 0x3edff3513eafafd8U, 0x3f886bf53f6a7e8aU, 0xbf58cd1e3f6438faU,
  0x3eec1c063eba0931U, 0x800000003f891ff1U, 0x0U, 0xbf6b9a353f8294d0U,
  0xbf63964200000000U, 0xbf8dcd903f937a2dU, 0xbf66b55880000000U, 0xbf394d43U,
  0x800000003f1ad371U, 0x3f00397c80000000U, 0x3f3b52ca3f690ba5U, 0x3f87270100000000U,
  0x3fa0caf8U, 0x80000000U, 0xbf525f6780000000U, 0xbf9aa56c00000000U,
  0x3f970c0ebf216e48U, 0xbf869b16U, 0x3fd4d4c8bf764e88U, 0x3fa246e500000000U,
  0xbfb9fbcfU, 0x3f870184bfc1dda7U, 0x3f4481cbbfbb054eU, 0x3f714cd2U,
  0x3fc396c080000000U, 0xbf2222e400000000U, 0xbf9aeea63fbcf4bfU, 0x3f84352600000000U,
  0x3edd9f38bf1add10U, 0xbeb73282bf33be53U, 0x3f2b48b83f117ae9U, 0x3f24f4ae00000000U,
  0x800000003f25c027U, 0x3ecc2797befdd1a6U, 0x3f1e2c563f3898afU, 0x80000000bf39e82aU,
  0x3f0ba2fabf3ff012U, 0xbe988bc100000000U, 0xbf0a04f980000000U, 0x3ed192cb3f2bf6a5U,
  0x3eaf2c143eefe856U, 0xbe91922a3f0ad4d9U, 0xbeb9587500000000U, 0x80000000bf08d2b0U,
  0xbff2f33580000000U, 0x80000000U, 0x400f0608U, 0xc0122e5abfc4356bU,
  0xbfd92a103fe753beU, 0x3f4c4c4380000000U, 0x3f680527U, 0xbfb1d77cU,
  0xbf92a1f2bfa18695U, 0x8000000080000000U, 0x8000000000000000U, 0x3ff1c3d7bfa0eb3bU,
  0x3f8c1b8b80000000U, 0xbf9a4c0d3f937445U, 0x3fa62a5fc001b310U, 0xbfb8bbf03fa539e0U,
  0xbf732c74bf901d30U, 0x800000003f604146U, 0xbf36e54d00000000U, 0xbf93220200000000U,
  0x3f1ce7e53f1844c9U, 0x80000000U, 0xbf9208483f6e3562U, 0xbf7abc62U,
  0x3ecbf40280000000U, 0xbf58b3af3f38983eU, 0xbf5226743f7f3430U, 0x8000000080000000U,
  0x3f5d7e323f44541cU, 0x3f49b7023f904caaU, 0x80000000U, 0x3f80188b3f99fdccU,
  0x800000003f40ef65U, 0x800000003f4304b0U, 0x3f51a24900000000U, 0x3f1954d6bf00957fU,
  0x3f34ebf580000000U, 0x3f442f9ebf0235b1U, 0x3ed60aed3f0ac53aU, 0x3f5a0cb6U,
  0x8000000000000000U, 0x3eea882dbf0ff07dU, 0x3f1c9578bf761471U, 0xbf0c3204U,
  0x3f5ad4a1bf399d7aU, 0x3f2d2e293f38672dU, 0x3f62a40d80000000U, 0xbf6d118000000000U,
  0x3fabc18cbf972734U, 0x3f902efc80000000U, 0xbf0e430cbf96467aU, 0xbfc16cf2bfc142f2U,
  0x80000000U, 0xbf4ed681U, 0x3f81b9ba80000000U, 0x3f85837380000000U,
  0x3fae64b13f9638a8U, 0xbfbaf7d83f40d0deU, 0xbf2a023e00000000U, 0xbf43b5213f43c396U,
  0xbfb56663bf74ff1aU, 0xbf1fcd20bfc3f1abU, 0xbf07459580000000U, 0xbf31f4fb80000000U,
  0x80000000bf276cd5U, 0x3f21402880000000U, 0x80000000bf2d3bebU, 0x3f51865f3f9dcc87U,
  0x80000000bf402913U, 0x3ee816dfbee056b1U, 0xbf767c36U, 0xbfa71daebf85f4b1U,
  0x3f1394e100000000U, 0x800000003f9f6c4cU, 0x3f903935U, 0xbf0b51a03f5acba5U,
  0x800000003fa3d93aU, 0xbf8f2dd0bfa40f02U, 0xbf1869b53f6f1d8eU, 0xbf77d71980000000U,
  0xbfa80831bfb92280U, 0xbfb5d723bf964aa5U, 0x3f3ffdf6bf4b628eU, 0x3fbcc1db3fb254b2U,
  0x80000000U, 0xbf2224fa3fb495ecU, 0x800000003f203cdcU, 0xbf55100bbfa4fccdU,
  0x3f819c143f926438U, 0x800000003fb056faU, 0xbfc92a1a3f7e6da2U, 0xbf55f8aa80000000U,
  0xbf303802U, 0x3f187eab3fb94eefU, 0x3f7bdda0bf6e2df4U, 0x0U,
  0xbfb473e53f458284U, 0x3f6e20b9U, 0x3f54d4eebf6ad26eU, 0x3f94e8b380000000U,
  0x3faf52d73fb64e41U, 0x800000003efc1febU, 0xbf8386bb80000000U, 0x3f9f5a55bf7b91e3U,
  0x8000000080000000U, 0xbf9c0c7d00000000U, 0xbf6f5d31bfa94861U, 0xbfb593ccbf0f6d76U,
  0x8000000000000000U, 0xbf621085U, 0x3f6540263f89ff98U, 0x800000003f6b7682U,
  0xbf8b0ee2bf147463U, 0xbf27e2e3U, 0xbf3b37ad80000000U, 0xbf14c4b3bf865fe5U,
  0xbf1b87ca80000000U, 0x3f071b39bf10340eU, 0x8000000000000000U, 0x3f525ccf00000000U,
  0x8000000000000000U, 0x80000000bf8b8046U, 0xbf55e93b3f64c682U, 0x3f1b7519bf1671c7U,
  0x3f85dd3d3f1978d4U, 0x3f89698700000000U, 0x3fa648d8U, 0x3f84060d3f72f41eU,
  0xbf0e1b2aU, 0x3f4785c600000000U, 0xbf8bd60abfa6d6bcU, 0xbf4fcc22U,
  0x3fa3c03d00000000U, 0x0U, 0x3f64308e3fb0ec3cU, 0xbf9f734b3fbc7278U,
  0x3f2ddbcf3fbecfdcU, 0xbf2df7a300000000U, 0xbf57a59e80000000U, 0x3fa9201dU,
  0xbfa7834580000000U, 0x3f5d3e74U, 0x80000000bfaf5ecdU, 0xbf341e753fc852cbU,
  0xbf447036U, 0x3f53fc30bf268544U, 0x80000000U, 0xbf5338db00000000U,
  0x3f728763bf74046eU, 0x3f56e43080000000U, 0xbf45cde9bf12ecb8U, 0x3f4493e7bf0b4018U,
  0xbf0a1032U, 0xbf85f23400000000U, 0xbf92ff3e80000000U, 0x3f93485cU,
  0xbf74e063bf870ca0U, 0x3f12159e3f5438b4U, 0x3f5d22e73f36b871U, 0x800000003f5ea3a7U,
  0x3f40a8283f30bc30U, 0x3f48612dbfa7ee27U, 0xbf55ea9abf14fd1eU, 0x3f86e3af3f838059U,
  0xbfa736853fa1825eU, 0xbf443aa180000000U, 0x3f12ebf6bfa259e4U, 0xbf060129bf840d13U,
  0x3f9c0aa3bf67d4b0U, 0x3f958adbbf7db050U, 0x800000003f2d680fU, 0xbf0cf58a00000000U,
  0x3facc131bf9cb2c9U, 0xbf3fb79ebf84671dU, 0xbf8223d5U, 0x80000000bf88992cU,
  0xbf88d227U, 0x3f22dc31bf992b44U, 0x3ff5b5c73fb76ffbU, 0xbfc608bc3f3cb0bbU,
  0xbfda376fU, 0x3f722b8fbf590a37U, 0x3f89146fbf7ca064U, 0x3f6278983f665ef5U,
  0x80000000bf174601U, 0x80000000U, 0x3f3a400f00000000U, 0xbf68d43bU,
  0x800000003f79b5d9U, 0x3f894c6100000000U, 0x3f375da080000000U, 0xbfd0bc5400000000U,
  0x3f786493bf67c838U, 0xbf80888cbf6f6522U, 0x3fbd84043f60ecedU, 0x3faf6a4bbfbd4ed1U,
  0x3fb5ecc3bf8f04d2U, 0xbf7b7660bf16cb27U, 0xbf7a744180000000U, 0x8000000080000000U,
  0x80000000bfb84d39U, 0x3f9cf585U, 0xbfad0b5000000000U, 0xbf4a1ebbbf9b34f2U,
  0x800000003fd0280aU, 0xbf523ff300000000U, 0xbf93f1fd3f6765fcU, 0x3f725ad5bf2d5bd4U,
  0x3f244289becc44beU, 0x8000000080000000U, 0xbead79cebedf2283U, 0x3f170bce00000000U,
  0x8000000080000000U, 0x3f45bd17be9c0239U, 0xbf01f49fbf3051d6U, 0xbee0fae5U,
  0x3f34a2c9beaa361bU, 0x3f26555700000000U, 0xbf3d04cb3e99c48cU, 0xbef7d9233f2066faU,
  0xbf39a52800000000U, 0x3f2afeedbf3df4adU, 0x3e9c627f3e8ab4c1U, 0x800000003f06801dU,
  0x3ffcf87ebf90ca29U, 0x3f8c2502bf4cb356U, 0x3fa2b4824018a04fU, 0x8000000080000000U,
  0xc00ac557c00545f4U, 0x3fb1f2d9c016e724U, 0xbfb3d3ce00000000U, 0xbfca19a300000000U,
  0x4007f0e1bf7cb057U, 0x800000003f8e336bU, 0x0U, 0x3f65a495bfb77aa2U,
  0xbf943fdbbfa34587U, 0x4016aeaf00000000U, 0x80000000U, 0x3fc6216abfc2d07dU,
  0x80000000bfa89485U, 0xc04bdbcf80000000U, 0xbfbb8a253fa73db3U, 0x800000003fb60c77U,
  0xbfa239fdU, 0x0U, 0x8000000000000000U, 0x4031d09d00000000U,
  0x3fba9edbU, 0x80000000U, 0x80000000c02fa35dU, 0x8000000080000000U,
  0x80000000U, 0x3fee10d800000000U, 0x400b3903c01c500bU, 0xc02c340680000000U,
  0x3fa368e03f779e4eU, 0x800000003f998883U, 0x8000000080000000U, 0xbfe30da1U,
  0xbfd4e4733f545018U, 0xbfb8fdbabf843fb9U, 0x3f47a55980000000U, 0x3f926b0a80000000U,
  0x3f8d1add80000000U, 0xbfe1f3023f374c30U, 0xbf6c74f800000000U, 0x3ff13bb5bfacdb96U,
  0xbfe20824bf7dc6dcU, 0x3f984ddb3f55df06U, 0x800000003fd6149aU, 0x3fb195ebU,
  0xbf9116bdbfb6381eU, 0xbf27ae583f241b91U, 0x80000000bfcd52fdU, 0xbf858ae9U,
  0xbf49dbcbU, 0x8000000080000000U, 0x80000000U, 0x3f432ca2U,
  0xbf528ec63fc1b536U, 0x3f8249073f1277d5U, 0x3faf3c523fb42ca4U, 0x80000000bfa28268U,
  0xbf8aa0c8bf1c59b8U, 0x3fa55a44bfd0a4e5U, 0xbf1aaa5380000000U, 0x0U,
  0xbfa6fc773fd085caU, 0x8000000080000000U, 0x3fa59ce280000000U, 0x8000000000000000U,
  0x80000000bf134b07U, 0xbf99447cbf814be1U, 0xbf9f5209bf915ed3U, 0x800000003fa77a1aU,
  0x3f4ca4913f740ccdU, 0xbf51e06900000000U, 0xbf7ebb16bf4c0202U, 0x80000000bfcb1054U,
  0x8000000080000000U, 0x80000000U, 0x800000003f51ddb5U, 0x3f1ebe2ebfb8b22bU,
  0xbfaa5ab200000000U, 0xbfc7e9e03f8baa20U, 0xbf4db8a680000000U, 0x8000000000000000U,
  0xbfe150e380000000U, 0xbf37096180000000U, 0x80000000U, 0x3f83ce3a00000000U,
  0xbf5819e23f2f1104U, 0x3f855776U, 0x3fb0f635bf4449ceU, 0xbf8fd1dc3f456a92U,
  0xbfa0721c80000000U, 0x3f3dc1fbbfabcfccU, 0xbfcb10963f2437a2U, 0x800000003fa3414cU,
  0x3f694fbbU, 0x80000000U, 0xbf9f324eU, 0xbfa0bba8U,
  0x3f939524bf56ab6cU, 0x80000000bf4463eeU, 0x0U, 0x3f07c2dfU,
  0x80000000bee38137U, 0x3f8eb2d5bf48cbe8U, 0x3f3cf8a500000000U, 0xbf9ddac1bf3da1b0U,
  0x3f1521c2bf947105U, 0x3f9d1ab4bf3312f4U, 0x800000003f111952U, 0xbeea82173f8fa8b3U,
  0x3f7502e880000000U, 0xbf2b377500000000U, 0xbf80832e40061cf5U, 0xbfd85f30bfe3f188U,
  0xbfae6e363fa95647U, 0xbfe52cbdbfa72f01U, 0x3f4a6550bf9b1162U, 0x3fd83d4d3fc51a28U,
  0x3f9a4b3480000000U, 0x4004246c00000000U, 0xbf6afb68U, 0xbf7b0b1f3f5e7301U,
  0x8000000080000000U, 0x3ff9b734bfc4e182U, 0xbf858f593f7a6478U, 0x80000000U,
  0x3f0cc34abf99003dU, 0xbfb73bfc80000000U, 0xbf2dd34f3f8b84f6U, 0x3f37b2b5U,
  0x3f2c22ed00000000U, 0x3f6ccde1bf90b873U, 0xbfcbe2b73fa90e6cU, 0x3f74b4983fc82d58U,
  0x3f912b6cbf79c62dU, 0x8000000000000000U, 0x3f354063bf8388dcU, 0x3fd49fde00000000U,
  0x3f33e591bfb3eb31U, 0xbf9928ad3f8ec563U, 0x3f6935fb3f15b5a9U, 0x3fb88d48bfcd6e37U,
  0x3f4e209d80000000U, 0x8000000000000000U, 0xbfa3c71ebfa26403U, 0xbf02216100000000U,
  0x3f6622f63f284becU, 0x3f40d8783f83d306U, 0xbf9fd9303fa065bdU, 0x8000000080000000U,
  0x800000003f6a7247U, 0x800000003fa7cfb3U, 0x80000000U, 0x3fb2993980000000U,
  0x3f4e5d0580000000U, 0x3f8dd244bf8bae30U, 0xbf76a08c80000000U, 0xbf8848a4U,
  0x8000000000000000U, 0xbef2aaa6bf73994cU, 0x3f0ec6a5U, 0x3f5b5cffbf55fbddU,
  0x3f5400a73f5e9df0U, 0x800000003f64a412U, 0x3f7a0fb93f844a9eU, 0x3f8017a73f852770U,
  0xbf6b16f03f273864U, 0x3f7acee4bf2743bdU, 0x3f5c790980000000U, 0x3f69343a80000000U,
  0xbf5127fcbefa15e1U, 0xbec86c3c00000000U, 0xbf684c3cbf0879f7U, 0x800000003f7cb0b8U,
  0x80000000bf776b0bU, 0x3f624e5f80000000U, 0x80000000U, 0x800000003f5bcd48U,
  0x8000000080000000U, 0x3f3702f080000000U, 0x3f5a25f4bf832797U, 0xbfb5ce9aU,
  0x3f8097853f9ce661U, 0xbf789f7100000000U, 0xbfa2142a3f5f030fU, 0x3f8c040b80000000U,
  0xbf8c3678bf838cedU, 0xbf934094U, 0x80000000bfad8db7U, 0x80000000bf8a9234U,
  0xbf702ca800000000U, 0xbf84a020U, 0x80000000bf13ffaaU, 0x3f928b5f00000000U,
  0x3f78c512bf43ec13U, 0x0U, 0xbf516d4e80000000U, 0x80000000bf541fbeU,
  0x80000000bec2177aU, 0x800000003f3a6ccaU, 0x3f4c997f3f8ce658U, 0x80000000bf787964U,
  0xbf81dec9bedcd845U, 0x3ec9b280bf5f8376U, 0xbf52269f00000000U, 0x3ee7a4aabf3335daU,
  0xbf18f1f93f423353U, 0x3f45ec97bf3fb066U, 0x3f60574680000000U, 0xbf837f19bf4421deU,
  0x3f8049e4bf47d8c6U, 0x3f8bc864bf74d061U, 0x3f9a01d200000000U, 0xbfadf06880000000U,
  0x800000003f2fa4f6U, 0x3f03817b00000000U, 0xbfa685e73f5124abU, 0x3f96086c3f8d3beeU,
  0xbfb64be7U, 0x3f85fcd13f6d4587U, 0xbfadd12e00000000U, 0x3f7b489abfa6d5ebU,
  0xbf794e61bf8d3d46U, 0x3ef0af45U, 0xbf27d48dbf63aadbU, 0x3f59c7b43f1754faU,
  0x800000003f2f3240U, 0x3f7cecc7bf7d32fcU, 0x80000000bf4bd240U, 0xbf881738bf5b55f2U,
  0x8000000080000000U, 0xbf70d08fbf07d8bdU, 0xbf1680a33f6c35faU, 0xbf65004e3f20a57bU,
  0xbf60ce39bf24ebd2U, 0xbf784e403ee45449U, 0xbf64036bU, 0x80000000U,
  0xbf707079bf33a424U, 0xbf960099U, 0xbf719ce0bf976408U, 0x3f9450783f2d0f8cU,
  0xbf336eefU, 0xbf6217debf1a4a2cU, 0x3f62fb343f396e3cU, 0xbf559f4a3f1b9d4cU,
  0x800000003f8c441eU, 0xbf895a1dbf1e8c16U, 0x3f659b79bf8a0800U, 0xbf01e8b43f7de8dbU,
  0xbf4f64b800000000U, 0xbf94be1b3f4cc14bU, 0x0U, 0xbf5ea67fbf5e1df3U,
  0x3f93458180000000U, 0x3fa5a6e9bf39b512U, 0xbf4a3d3400000000U, 0xbfb9ce4cbf26de5eU,
  0xbf3a91ebbf3f6d76U, 0xbf92608fbf93d6c7U, 0x8000000080000000U, 0x3f7ef30ebf82c474U,
  0xbfb2c6c5U, 0xbfb5ee413f4e825aU, 0x3f0f90eb3f77a4a7U, 0xbf295b66U,
  0xbfa37968bfa1d6bfU, 0xbf833469U, 0xbf33c10a3f95622bU, 0x800000003f0aec34U,
  0xbfd1c459bf671377U, 0xbf1ae430U, 0x0U, 0x3f865b9cbf787032U,
  0x3f7c1dc13fb6ad8bU, 0xbfc16c88bf51027bU, 0x3f8187c8bfa04fa2U, 0xc002c3ffbf9aecc0U,
  0x0U, 0xbfa26ef680000000U, 0x400839ca80000000U, 0x4007b40140010ab2U,
  0x3f6fd3e53fee2ebfU, 0xbf79eca0U, 0xbf6527ae3fdf7f7eU, 0xbf56fc05bfea7468U,
  0xbf9e7578U, 0xbf90166c80000000U, 0x3f35a2753f365041U, 0x3f9c4af900000000U,
  0x3f26d3b400000000U, 0xbfc1eab1U, 0xbfc4e3e83f7efff9U, 0x3f89edd8bfed62bbU,
  0x8000000000000000U, 0x80000000bf22530bU, 0x3f7b0ef23fe971d9U, 0xbf6d6469U,
  0x3fe12797bfd9ceb7U, 0x8000000080000000U, 0x3fda9e48bfbde83dU, 0x8000000080000000U,
  0xbf636255befb5f6fU, 0x8000000080000000U, 0xbf71f9b7bf6d9111U, 0xbf837d7dbf10a343U,
  0x800000003f85e57eU, 0x3f08c4283eff9225U, 0x80000000bf62602aU, 0xbf8a9e1fbf418851U,
  0x3f6ed23abf9a31e9U, 0x8000000000000000U, 0x3f8c65e03f33e8c0U, 0x3f6f32e03ef695e6U,
  0xbf26332580000000U, 0xbeeb2510U, 0x3f24e81f00000000U, 0x3ee6507400000000U,
  0x800000003f96f7ceU, 0x3f97c4efbfab6344U, 0x0U, 0xbf53c47e3fcb78e4U,
  0x3f486de03f5d6002U, 0xbfceadb600000000U, 0xbfbd887f3fb6b5b1U, 0x3fc6380f00000000U,
  0xbfc1a3df3fc60d36U, 0xbf36bf083f19e01fU, 0xbfbe6940bf6f8abcU, 0x8000000080000000U,
  0xbfad375500000000U, 0xbfcc01fc3fc20306U, 0x3fa30ce0U, 0x3fcd63c900000000U,
  0x0U, 0x3fa93ed380000000U, 0x3f83df45U, 0xbf2eff253f59fdfbU,
  0xbf6175f700000000U, 0x3f27f9483f11c3feU, 0x3f50fbd1beebba87U, 0x3fa0f5a23faa0186U,
  0x0U, 0x3f1c8f9b80000000U, 0x3f7cd69abf92db63U, 0xbf1351213f5360bcU,
  0xbf5a30603f278df4U, 0x3f3048fbU, 0x3f43f2da3f95e745U, 0xbf6b99f33f8514b7U,
  0xbf6cb4c5bfc9fd1aU, 0xbf4c1a77bf8d3cd4U, 0x8000000080000000U, 0x3fbd56ca00000000U,
  0x3f91a7e2bf294374U, 0xbf9f446c3fc370a6U, 0xbf3c2ade3f583b2eU, 0x800000003f96d986U,
  0xbf2b1d66U, 0x3f4b4fe1U, 0xbfa94f81bf9cfcb0U, 0x3fb0cae33f99671cU,
  0xbf3761893f8dd40dU, 0x3f6f944f80000000U, 0xbfb1d80c80000000U, 0x80000000bf131299U,
  0x800000003ff200caU, 0xbfc83542c00f86e9U, 0xbfcc0cfc00000000U, 0x3f3d954dbf84d964U,
  0xbf5e12c93ffef5a8U, 0x80000000bfa5c462U, 0x3fe77a503f5f39e7U, 0x3fdc04c5U,
  0xbff6a933U, 0x3fcd601c3f954220U, 0xbf61e56e00000000U, 0x3fdaa5b9bf906ba9U,
  0x3fcdb6023f3afba2U, 0xbfab3c87U, 0xbf7dc758U, 0xbfa8f6fcbfeab1dbU,
  0x3fc002e300000000U, 0x3fc5cc9bbf63d759U, 0x3f6931c8bf2c8dc6U, 0x0U,
  0xbf9af645bfbb2db5U, 0xbf9bc7fe3fabf491U, 0xbfe8fa7a3f2e237cU, 0xbf80fc5bbfd3a2e6U,
  0x0U, 0x3f7240f93fb5e0bfU, 0xbfa4c64580000000U, 0x800000003fc6c924U,
  0x80000000bfbc4653U, 0xbfd53dfc3fe0307aU, 0x3f226a15bfa11a79U, 0xbfad3074U,
  0xbf9a0c803f05dc2fU, 0x80000000bf64916fU, 0x80000000bf915edaU, 0x3f8c146d3f8e8664U,
  0x3fa58f7a00000000U, 0xbf3fef71U, 0x3fabcd9700000000U, 0xbf5030f3U,
  0x3fa9a02700000000U, 0xbef8f8f180000000U, 0x3efd830f3f00b79cU, 0x3f83cf443f8360d5U,
  0x3f596a65U, 0x3f39589d3fa336d6U, 0xbf918588bfa32f9eU, 0x0U,
  0x8000000080000000U, 0x3fe5c0f73fa0b6dbU, 0x3f9ffd573fab5318U, 0xbfaaec3b3f7815abU,
  0xbf7a7091U, 0x800000003fd1f33aU, 0xbfd565f080000000U, 0x3fe414503f87448aU,
  0x800000003f413f0eU, 0x3fc02f123fe1a238U, 0x3f595e883fc045d6U, 0x0U,
  0x3f9a59c200000000U, 0xbfc490fbbfa4da8bU, 0x800000003fd3558fU, 0x80000000bf1595a9U,
  0x80000000bfb77e90U, 0x3febd03a3fb67479U, 0xbf5eb746bf6839efU, 0x3f971fbc3faaac6dU,
  0x3facb8e13fce27b2U, 0x3f4229c600000000U, 0x800000003f954383U, 0x3f2e70d500000000U,
  0xbf6c4a2c3fe0460bU, 0xbf97590200000000U, 0x3fa031c9U, 0xbfc734213fa1fd27U,
  0xbf1ebaafbf9797ceU, 0xbfc03e2300000000U, 0xbf1f5b4e3ff338f0U, 0x3fef24febf944d03U,
  0x3fccba7dbf1f72feU, 0xbfc4b0d9bfe74508U, 0x3fa239563fc262f1U, 0xbf195218bf8975e2U,
  0x3f44b9cf3f845a8eU, 0x800000003fec1327U, 0x3f95c379bf49e620U, 0x3fb26500bf3264d4U,
  0x3fa63f243fd1d301U, 0x3f8d93953f490ed5U, 0x3fe926543fcd9c7aU, 0x3f19d99d80000000U,
  0x8000000000000000U, 0xbfd4f4f1U, 0x800000003f4cde89U, 0x800000003fe7760dU,
  0xbf85571100000000U, 0x0U, 0x3f11e01080000000U, 0xbf337ca7U,
  0x3f18c1dd80000000U, 0x800000003f6afc63U, 0x3fc1cca33f8ea923U, 0x3f5c3961bf53cf3cU,
  0x8000000000000000U, 0x80000000U, 0xbfae6f253fa2a043U, 0x3f8e60bc00000000U,
  0x8000000000000000U, 0xbfc17a7b00000000U, 0x8000000000000000U, 0xbfbdc7a4U,
  0x3f978f5dU, 0x800000003eff31a9U, 0x80000000bf2bc99eU, 0x80000000U,
  0x3f8c241b80000000U, 0xbfc0be0500000000U, 0x3f22c725U, 0x3f465d96bfa129e5U,
  0x3f839c113fa708ebU, 0x8000000000000000U, 0x3f7febb780000000U, 0x800000003fa78d0aU,
  0x3f99978e00000000U, 0x3f93851b00000000U, 0x800000003f52c150U, 0x80000000U,
  0xbf83bbfdU, 0x800000003fc689b4U, 0x3f9cb1103fe43c1cU, 0x80000000bfbf7f5fU,
  0x3f43eaf3U, 0xbfa80d02bf7f3888U, 0xbfad440f00000000U, 0x3fa93322bfbc470eU,
  0xbfea308b3f595ecaU, 0x3f934ecb00000000U, 0x800000003f4b0f73U, 0xbfc0ab63U,
  0x3f8849223fc1d765U, 0xbfba2a20bf4e215bU, 0xbfc17c5c3f8d54e9U, 0x3fa498fbbf4d438cU,
  0x3f63f6a900000000U, 0x3f61b0abU, 0x3fac80c100000000U, 0x3fadd5c93fa9b037U,
  0x3f9e968100000000U, 0x80000000bf9da93dU, 0xbf9ac3fe80000000U, 0xbf43c75f80000000U,
  0xbf05d60c80000000U, 0x3f34f93f3f9fbcc6U, 0x3fa348d93fa6e003U, 0x3f3aa19f3fac08ebU,
  0x80000000bf0d7a09U, 0x80000000bf37c8afU, 0x800000003f1bcfd5U, 0x3ee55afebf4333f9U,
  0xbf0ad50c80000000U, 0xbf90f00880000000U, 0x3f458c6bU, 0xbf9d94fe3fa242a7U,
  0x3f1a4313U, 0x8000000080000000U, 0x800000003f3b707fU, 0x3fb6126b3f42ac0fU,
  0xbf942ef180000000U, 0x8000000080000000U, 0xbf8c8f133f2c7d88U, 0x3fb0be4e3f89ba53U,
  0xbef3d2b480000000U, 0x3fb20a89U, 0x3f4c7a453fa31ec6U, 0x80000000bf144946U,
  0x40072bf93f8704b5U, 0xbf6054143fc09dbfU, 0xbfc569c93f63c8c8U, 0x400f5270U,
  0x3f45b84980000000U, 0x3fc6aace3fc0bb81U, 0xbf85560680000000U, 0x3fa48ce8bf9dd25fU,
  0x3f8f21d000000000U, 0x0U, 0x3fcb88b7bff68bcfU, 0xbfa44f633f97f3bbU,
  0x400d004fbfb18f44U, 0xbf59f84d400fd6aaU, 0x3f9794a9bfad1da0U, 0x0U,
  0x8000000000000000U, 0x3f11a0963f9534caU, 0xbf90639400000000U, 0xbf808b15bf36423eU,
  0x8000000080000000U, 0xbf08249bbf681e7eU, 0xbed653b8U, 0xbef7d374U,
  0x3f035e4780000000U, 0x0U, 0xbf8f1954U, 0xbf882dbabf9d6bffU,
  0x3f6936ae80000000U, 0x3f7f127500000000U, 0x3eea2b0300000000U, 0x0U,
  0xbf4a266abf8c05f9U, 0x3f3c93bd3f89732cU, 0x3fbfef22bf5eb072U, 0xbf6fa048bfc4a1edU,
  0xbf1ace9380000000U, 0x8000000080000000U, 0xbf968743U, 0x80000000U,
  0x800000003f9e8247U, 0xbf5663c800000000U, 0xbf8e56273fd22ef4U, 0x80000000U,
  0x3fad473a00000000U, 0x80000000bf8def32U, 0xbf97e9aebfd0e6a7U, 0x3f6daee000000000U,
  0x3f76797c00000000U, 0x3fbe54b13f2c7c95U, 0x3fbf615fbfae35adU, 0xbf1392da3fbade5dU,
  0x3f2cddad3f7f1341U, 0x3f4ffc3d00000000U, 0xbf98ec85U, 0x3fb9c2923f206943U,
  0x3fb3625d3f994e03U, 0x80000000bf11b998U, 0xbf73592abf7e8110U, 0x3f22ba4180000000U,
  0x3f8ed19d80000000U, 0x800000003f8e7e79U, 0x3f12ce3a3f81077cU, 0xbfa5f7ee00000000U,
  0x3f7c144780000000U, 0xbf36f211bf453ed7U, 0x40079b8b3fa953fdU, 0x800000003f4f0cd4U,
  0xbfb32f7080000000U, 0x8000000080000000U, 0x80000000bfb3b0eeU, 0xc005d2e680000000U,
  0xbf8dd36b3f98a1e4U, 0x3f713c9abfa16926U, 0xbf9bd74abfa9b003U, 0x80000000bf8acbb8U,
  0x3f84c599U, 0x3fa12e8800000000U, 0x3fd7feff80000000U, 0x80000000U,
  0xbda749563dbffd36U, 0x3f64ef453e195603U, 0xbefb0073bfaa6f16U, 0x3eedf49c3cb6205eU,
  0x3ecca44d3e2361e0U, 0x3f28d2a83f0e1824U, 0x3f03d8873e9e4332U, 0xbf4826f9bc5c655eU,
  0xbf32347f3f07dd1dU, 0x3ec7a3da3f5c65ceU, 0xbe95c4433e2057f8U, 0x3ef089953ea1ed89U,
  0x3f87497bbc2478deU, 0x3ea78f71be76c683U, 0xbed8bf0a3e6ab6acU, 0x3e9958c0bf104781U,
  0x3f4b17d03ef5a83fU, 0x3ebd4a90be7e7b61U, 0xbec8cf24be760ecbU, 0xbdf1c5dd3f9b85feU,
  0xbed1b663be1df69eU, 0x3e2c3fd8bf326018U, 0xbf011319be2b0ee4U, 0x3ecaa7babd8e191cU,
  0x3e479dd23f6de0bcU, 0xbf3341353cfb54f1U, 0xbea19f9abe60f383U, 0xbf05324e3f184480U,
  0xbf0b16a9baa52af0U, 0xbf43e6da3ea55f4aU, 0x3e9630003e22f6dbU, 0x3e23d302bd0a89ccU,
  0x3e90e1073e71dc80U, 0xbd83e09000000000U, 0x3d6bb2d73dc6fb34U, 0x3e5eb0a2be8f751cU,
  0x3e40f2183da0d7efU, 0x8000000000000000U, 0x3d93d22f3e78b13eU, 0x80000000be9deadfU,
  0xbe27b0273e9cb497U, 0xbe27aad5be85fb48U, 0x3e4f9857U, 0xbe5ba108be09a3ccU,
  0xbdb1bb963e81e937U, 0x8000000000000000U, 0x3de3cbd63e97d5fbU, 0xbe15157f00000000U,
  0x3e7908093ea216d0U, 0x3e52917cbe50164eU, 0x3e947d8fbe0a0d0fU, 0xbe8d35e880000000U,
  0xbe7e8ea13dbcc627U, 0x3de2449f3e7ac7ccU, 0x3e4f0538be87484bU, 0x3e7a9a383dcf2c97U,
  0x3d771c8ebdbfedd7U, 0x0U, 0xbe22b8133e9d34c5U, 0xbe4389b1be0d2af3U,
  0x3db4e75f00000000U, 0x3e9316313e87fca8U, 0xbe8fc5a53e88517fU, 0xbe994b1fbe36d4e1U,
  0x800000003e960adcU, 0xbdc618503e1b8478U, 0x3e1aab353e79a15eU, 0x3e52ad303dd8507eU,
  0x3e403b57bea541d9U, 0xbe84510c80000000U, 0x3e4ca02e00000000U, 0x3e7419273dd93e05U,
  0xbdf784613e5b1136U, 0xbe3d71ff80000000U, 0x3e981a58U, 0xbe34ab2c3e4e32c6U,
  0xbe3fd73fU, 0x8000000080000000U, 0xbe41eaf9be80cc72U, 0xbe423f6880000000U,
  0x8000000000000000U, 0xbea672afbe8cb87aU, 0x3ea36dfe3e851029U, 0xbe0546a3U,
  0xbe9f8c1dbe03368aU, 0x8000000000000000U, 0xbe1c0d5d3ddbdfaaU, 0xbe87b830U,
  0x3dfc5ded3dac1f94U, 0xbe8aec7580000000U, 0x3e981a593e90ecaeU, 0x3e4f82973e96d974U,
  0x80000000bda8de01U, 0x3e7e85423e2c79c9U, 0xbe4a439cbe97c73cU, 0x3e6f50dfbdd6221bU,
  0x3da99e9d80000000U, 0x3e7c6fa3be558f0cU, 0xbdbdbd98be62ccabU, 0x3e9d839cbe03801dU,
  0x3e3ed606be6b884fU, 0x3e852978bd887045U, 0x3dac8769bdb35168U, 0xbdd961f5be7d4be9U,
  0xbe6d313fU, 0xbe0fa4eebe912437U, 0xbe69eef13e785c73U, 0x800000003e673a92U,
  0x3da09b283e26be76U, 0x80000000U, 0xbe9fe180U, 0xbdecc09a3e8ead60U,
  0x3e31effd3e402374U, 0x3e58111500000000U, 0x3e77e18c3e667963U, 0xbea5014b00000000U,
  0x3e712574be25e33bU, 0x3e3b9f6abea49229U, 0xbd8901f6be61f29dU, 0xbe8f12ba3ea5cc95U,
  0x80000000bdec821bU, 0x3e24daa03e42968bU, 0xbe162a11be06afceU, 0xbe903e57be492434U,
  0xbe9135f1be125a07U, 0xbe81aa463db0f603U, 0x3df9f971bde32617U, 0xbd740db53e154879U,
  0xbdcb566c3e2f2861U, 0xbea5cf3eU, 0x80000000U, 0xbe9e51103ea3e63bU,
  0xbdae2fafU, 0x8000000080000000U, 0x3e46d025U, 0xbe5e1375bea83053U,
  0x3ea898e43e7cf437U, 0xbe3d55813e82d02bU, 0x3e97270d00000000U, 0xbe585cbbbe9b1f4dU,
  0xbdfa42df00000000U, 0x80000000U, 0x3e537e01be67d465U, 0x3e5cdbcf00000000U,
  0xbe2e7b573d8f50aaU, 0x3ea3eaebbe061620U, 0x8000000000000000U, 0xbe888fc8be854618U,
  0x3e36bc96bdabbc2fU, 0x3d7bf3d380000000U, 0xbe05b80e3e8f4d5dU, 0xbe57b62a3e9c88abU,
  0xbda8cee3be80323aU, 0xbe26a4e83e9e9123U, 0x3d889427be982677U, 0xbe739610be88d96bU,
  0xbe8e876e3ea309d1U, 0x3e115a81bdd0e347U, 0x3db71dae3e372db5U, 0x3e2e63243e830b65U,
  0x3e8a2f433dd175e4U, 0xbdcb02e8be85c366U, 0x80000000bd81b3a7U, 0xbde61159U,
  0xbe4fad973d996bdeU, 0x3e38482b3dd317c4U, 0x3e15878780000000U, 0xbe86b831bea72eabU,
  0xbe5664e2be94d0e1U, 0x3d889d253e954942U, 0x3e8b43583da331e0U, 0x800000003e30823cU,
  0xbe7bbf9c00000000U, 0x3ea45df73e40ef50U, 0xbd8c48293e0b48eeU, 0x3db0894d3e0d0909U,
  0x3e31b5d63e44a012U, 0xbea67d10be222b2bU, 0x3e65d3b1be3bd027U, 0x3e0dc4993e25fbfaU,
  0xbdb10e363dc230c3U, 0xbe87c476be338de1U, 0x8000000080000000U, 0x3e610f4e3d93a667U,
  0xbe41893b3e43cd5bU, 0x3e9c6c7fbd814ddfU, 0x3e067e3cbd9f9116U, 0xbe97f246be878e2aU,
  0xbd8cd6cb00000000U, 0x3e06964580000000U, 0xbeabac563e36ace7U, 0x3e740b30U,
  0x3ddcb6f2be24fe42U, 0xbe967ae13e00931dU, 0xbea2fb3a80000000U, 0xbdf9d6c6be55265eU,
  0x3e37b5efbe988360U, 0x3d7342e700000000U, 0x3e001cd800000000U, 0xbe06c1b9bda54692U,
  0xbe0d0d4680000000U, 0x3e26dcb5U, 0xbe8fe3783e95dd10U, 0x3e801e5a3e0d746bU,
  0x3d9e025bbea828d6U, 0x3e7ccd3d80000000U, 0x3d896c443e49ff77U, 0x3dc7c6cc00000000U,
  0x3e46377c00000000U, 0x3e961eacbe57ed54U, 0x3d9e02ad3e2a02bdU, 0xbe131e32bea22a9fU,
  0xbea4d1903df71ef2U, 0x3dba73c2be4288deU, 0x3e3901383e2a7e4eU, 0xbe9887a63e0b3921U,
  0x3db6691c3df7fe11U, 0x3e54269a80000000U, 0x3e26815d00000000U, 0x3d94f36a80000000U,
  0x3e8aa21f3e0f9d2bU, 0x3ead3c7880000000U, 0x800000003e31c4e4U, 0x3d9bb60dbe326f29U,
  0x3db5075e3e36bdbfU, 0xbe98830f3ea6b39cU, 0x3e8159c080000000U, 0x800000003d850ed7U,
  0xbea1a30cbe92dcd4U, 0xbe2db856bdc01effU, 0xbe94fdac80000000U, 0xbde6f3ad3ea0bbc1U,
  0x3e0161ad3da3ba0dU, 0xbdd8ccd83d83fc4eU, 0x3e8044c500000000U, 0x3dd88e3000000000U,
  0x3e33766a3e5073b4U, 0x3e7c9f00be627faaU, 0xbe63f9b3U, 0xbe4143503d98f75aU,
  0x3e3745823e139a4eU, 0x3e184bf9be32f2c3U, 0x3e2f86c0be96dc0cU, 0xbe81a2d93e8e5036U,
  0x3e878306be042fc9U, 0x80000000be0e314aU, 0x3e4f04ec3dc049c1U, 0xbe8fd3c2U,
  0x3e886db380000000U, 0xbe2a84ab3e269be9U, 0x3e17a41bU, 0x3e8e9cc7be745496U,
  0x0U, 0xbe953f833e6857fbU, 0xbe8ba62f3d815ebaU, 0x3dda207280000000U,
  0x3e0bd81fU, 0xbe90d753U, 0x3e72a582U, 0x3d835798be16cd9aU,
  0x3e0b3f87be440ff7U, 0x3e434abdbe4e1eb0U, 0x3e257cc0bdf29fe4U, 0xbe053b4f00000000U,
  0x3e9624ef3d742107U, 0x3e55ebbfbd9bc92eU, 0xbd8198213ea3f21fU, 0x0U,
  0x3e8273013e9d931dU, 0x3e131b683e2622edU, 0x3e91e38280000000U, 0x3d8b5787be8645e2U,
  0xbdaf46153e99b18eU, 0x3ea86cbcU, 0xbd8721a5U, 0xbddec3943e2912aeU,
  0x3e869489U, 0xbe2ce42fbde7afc2U, 0x8000000000000000U, 0xbe9b4b7fbe8dfb36U,
  0x3e8061c93dd53509U, 0xbe53eb443e3f1a39U, 0xbd9f21413dacd512U, 0x3e896b5080000000U,
  0x3ea2e1203e8e15edU, 0x3dc44f3cbe18c467U, 0x3e7654fdbdf0be5bU, 0x800000003e9db20bU,
  0x3e8f6a283e77816bU, 0xbe0f87a280000000U, 0x3d88e6a5be82747fU, 0x3e25bd9cbe8a95e8U,
  0xbe365d8bbe915326U, 0x3e41afcabe2ddab1U, 0xbddfc2bfbe276a87U, 0xbd8bb4aa3e980bbeU,
  0x800000003ea3253bU, 0x3e62b32180000000U, 0x3ea137443e7893c1U, 0x3ea015eb3e226f8dU,
  0x3e3558deU, 0x3e0ee68e3e894bf6U, 0xbe022a4e3ea2d692U, 0x3e813abf3e9baa91U,
  0x8000000000000000U, 0xbeaa7a4880000000U, 0x3e202629bea0e942U, 0x800000003e794705U,
  0x3e716e30be4ec6e4U, 0x8000000000000000U, 0x3e4fce67be8e86efU, 0x3d96bd323e838ba6U,
  0xbe9c5720U, 0x80000000be5e4234U, 0xbe9a3f0900000000U, 0xbe973e22be200835U,
  0x0U, 0x800000003df18808U, 0xbe06318cbe960c15U, 0xbe735faebe231a9aU,
  0x0U, 0x0U, 0x0U, 0x0U,
  0x0U, 0x0U, 0x0U, 0x0U,
  0x0U, 0x0U, 0x0U, 0x0U,
  0x0U, 0x0U, 0x0U, 0x0U,
  0x0U, 0x0U, 0x0U, 0x0U,
  0x0U, 0x0U, 0x0U, 0x0U,
  0x0U, 0x0U, 0x0U, 0x0U,
  0x0U, 0x0U, 0x0U, 0x0U,
  0x80000000bee54b4aU, 0xbf168f0dbf47c905U, 0x800000003f2ce8f4U, 0xbf22e19cU,
  0xbf342d8800000000U, 0x8000000000000000U, 0xbf39e7203f136a0dU, 0x3f182da3bf175dd0U,
  0x3eed0d2cbf0be788U, 0xbf4ee359bf191e78U, 0xbf335bf2bf41afd2U, 0x3ec659b7U,
  0xbf50b2153f4b4d76U, 0x0U, 0x3f06ce4e80000000U, 0xbf001fec00000000U,
  0x3f506c3c00000000U, 0x3ede65e0bf4fa36aU, 0xbee408efbef8f50fU, 0x80000000U,
  0xbf01dc083f0caeccU, 0x8000000000000000U, 0x80000000U, 0x3ecdbb28U,
  0xbf22189e3f1fd25cU, 0xbf4106163f24315bU, 0xbf184fa43ede099aU, 0x3ee8bd45bf2d3671U,
  0x3f2f8cbf00000000U, 0x3f1012b3bf0a5d9eU, 0x8000000080000000U, 0x3edf8121U,
  0x3f3fe6b1U, 0x0U, 0xbf46ecd83f2a04e6U, 0x3f4af4913f03266fU,
  0x3f0f2fba3f46360aU, 0x8000000000000000U, 0x0U, 0x3f41d42aU,
  0x3ecd9ead3ed261e2U, 0xbee8718500000000U, 0x3f10876600000000U, 0x80000000bf47f628U,
  0xbed09f00U, 0x3f43fef53f4cbea0U, 0x800000003f3db3d1U, 0x80000000bf3876ecU,
  0xbeeaec673f351822U, 0xbf3ac661U, 0x3eca18033f55ca96U, 0x0U,
  0xbf17260600000000U, 0xbf32a33fbf49fb6bU, 0xbede9d5580000000U, 0x80000000U,
  0x8000000080000000U, 0x80000000U, 0x8000000000000000U, 0xbf49fe71U,
  0x80000000bf53a260U, 0x800000003f5654ddU, 0xbf4cd37480000000U, 0x800000003ece3090U,
  0x800000003f1fce31U, 0xbedbc74dbf01c50eU, 0xbec916c100000000U, 0x3ef496b3U,
  0x80000000bee56a8eU, 0x3ee8378400000000U, 0xbf23bc50bf2e5819U, 0x80000000bef2e047U,
  0x80000000U, 0x3f36671bbef02ee5U, 0x3f46f069bed83834U, 0x80000000bee5d419U,
  0x3ef394d1bec80369U, 0x80000000bf203506U, 0x3efd226a3ec17b92U, 0xbf32e3f6bf0d5064U,
  0x8000000080000000U, 0x3f3c96923f2818daU, 0x800000003ee5168aU, 0x8000000000000000U,
  0x3f0ea4c83ed3c121U, 0x3ef978ecU, 0x0U, 0x3eb06494bebc7f7dU,
  0xbf32e4b080000000U, 0x0U, 0x80000000U, 0x8000000000000000U,
  0x8000000080000000U, 0x3f410e35bf07996dU, 0xbef0acbd80000000U, 0xbf144e5700000000U,
  0x80000000U, 0x3f0c676e80000000U, 0x3efd0023be953714U, 0xbf0c75243ec981e0U,
  0xbf186fd93f022b19U, 0xbeedbc10U, 0x0U, 0xbeae25dcbea424f4U,
  0x0U, 0x3ef33371U, 0xbef9cb1bU, 0x3e9849fd3ec06be9U,
  0xbf0f5c26bf1e1434U, 0x0U, 0x3ec581d43ecab5b3U, 0x3f02063380000000U,
  0xbec814b080000000U, 0x3ea6109700000000U, 0x800000003e9e49b8U, 0xbeb9e48d3ec9a2cfU,
  0xbedfad6eU, 0x800000003f1bc6fcU, 0x0U, 0x8000000080000000U,
  0x80000000U, 0xbe96c2253ee3b852U, 0xbf09ea0b80000000U, 0xbe83428200000000U,
  0xbf2af30d3e967f56U, 0x3eef76aebf04371cU, 0x3f0a8c3280000000U, 0x0U,
  0xbec2062eU, 0x3eb24228bf076700U, 0x8000000000000000U, 0x3eeb618c3f0a2675U,
  0xbf2afce63efdb010U, 0xbf1847f8bf0c057fU, 0x8000000080000000U, 0x3f03f8e900000000U,
  0x800000003ee4791dU, 0x800000003eda7e47U, 0xbefb204100000000U, 0xbf0482e4U,
  0x3f0ac7bc80000000U, 0xbecdcfcb00000000U, 0x80000000U, 0x3f16471f80000000U,
  0xbed023c4U, 0x80000000befd109eU, 0xbf0146c600000000U, 0x80000000U,
  0x3ee5e76c00000000U, 0x3f152f703f0f2bd3U, 0x3f1f35fabee6c72cU, 0x3ebf8d5e00000000U,
  0xbef0455a3f0121d6U, 0x3ef2c643U, 0x3f13596aU, 0x800000003eebb679U,
  0x3ef94add80000000U, 0x3f0309a8bebf6b24U, 0x8000000080000000U, 0xbed48640U,
  0xbef9e9a700000000U, 0x3f127db600000000U, 0x800000003f18846cU, 0x800000003ee95911U,
  0x3f409c0680000000U, 0x3f1d5d59U, 0x0U, 0x3f2084c9bf125a42U,
  0x80000000U, 0x3ef784c300000000U, 0x80000000bf1b8fe3U, 0x80000000bed7d0deU,
  0x3f0f629fU, 0x3f37f975U, 0x3f0ab5ad80000000U, 0x3f13640abedf027bU,
  0x3f3a714280000000U, 0x8000000080000000U, 0xbf0e812aU, 0xbf164aaf00000000U,
  0x3ef1531cU, 0x3eba9e0cbedd8abbU, 0xbf243d34bf1f7862U, 0x3ed8eff23f2670a7U,
  0x800000003f0f5607U, 0xbf17bc26U, 0x3efe3f8900000000U, 0x80000000U,
  0x800000003f127fc1U, 0x3f1782faU, 0xbf0cf1e680000000U, 0x3f2238973f066fe7U,
  0x8000000000000000U, 0xbf11822780000000U, 0x3f20184a00000000U, 0xbf02182f3ed812caU,
  0x3f289eefbee3ee7dU, 0x80000000bedb86b9U, 0x3eec05b43f46529bU, 0x0U,
  0x800000003ed7ac6aU, 0xbec73328U, 0x0U, 0xbf3d11ca3f53ebf6U,
  0x3f45813680000000U, 0xbecdc351U, 0xbed78cb53f26302aU, 0x3edfc83a00000000U,
  0x800000003f122b1cU, 0x3f056c6a3f0a26b4U, 0x3f52ec94U, 0x3f01f59abf10a7e4U,
  0xbf16102280000000U, 0x3f0191f1U, 0xbf3694d9U, 0x3ec57f8500000000U,
  0xbf435765bef8196fU, 0x3f4be4aeU, 0xbf30636000000000U, 0xbf0a45243ee7aedeU,
  0x800000003f0af16dU, 0xbf255f20bf3842b6U, 0x3ed90dca3f3a3b07U, 0xbf085fe23f0fbcc1U,
  0x800000003f1021c7U, 0xbed38023U, 0x8000000080000000U, 0x80000000U,
  0x3f032c1d80000000U, 0x0U, 0x0U, 0x3f30e033bf0f35beU,
  0x3f09e2b0bf1fd263U, 0x800000003f102feaU, 0xbf27b299bed36fb1U, 0x800000003efb78ebU,
  0x800000003f0794dcU, 0xbefcbe35U, 0xbef1918800000000U, 0x3ed56e183f300f20U,
  0x800000003f0b9f49U, 0x3f4da38d80000000U, 0x3f217ea13f3969cbU, 0x80000000U,
  0x800000003f3b53ffU, 0x80000000beff78d8U, 0xbf2bebd5bf3420e9U, 0xbf0d5f9180000000U,
  0x3ecf7b2b80000000U, 0x3f0ff171bf201c1dU, 0xbec87a24U, 0x8000000000000000U,
  0x3f11637ebee13366U, 0x3f1bf6a800000000U, 0x800000003eebe788U, 0x3ee124e400000000U,
  0x3f14405880000000U, 0x3ec7872800000000U, 0x3ecafb07beb22616U, 0x3f0a3ce2U,
  0x800000003eabb6fcU, 0x800000003ed65da6U, 0x80000000bf3f2bddU, 0xbebd6d3d80000000U,
  0x80000000U, 0xbf0dc57680000000U, 0x800000003eebb769U, 0xbf0be0d03f05a36bU,
  0xbec7d27a3f16771aU, 0x3ea1358cU, 0x3f0a3222beecccfeU, 0x3f0dc48400000000U,
  0xbed232833f300b99U, 0xbf15e1593f28e979U, 0x3eab21f3bf3112f0U, 0xbeb6c8073f1d04f5U,
  0x3f2ab1753ed5374aU, 0xbede5df03f30abeaU, 0xbeaae01a80000000U, 0xbed0cdbe80000000U,
  0x80000000bf2db3ebU, 0x3ea04a9e3f2201d7U, 0xbed35e2b00000000U, 0x80000000bf1ac037U,
  0xbebc497bU, 0x3f10ec87bec6374eU, 0x80000000U, 0x800000003f2f34acU,
  0x8000000000000000U, 0x3ee98bd8bedcc363U, 0x8000000080000000U, 0xbf4650c8bec41867U,
  0x3f2c6bf780000000U, 0x0U, 0x3f09b5a03f14a0ebU, 0xbf3a1c7bbf1df6deU,
  0x800000003f1ed489U, 0xbf334040bf1e4b7dU, 0xbed5a82c80000000U, 0x800000003f2f8b72U,
  0x80000000bf0b4651U, 0x3f148c21U, 0xbf3a936d00000000U, 0x8000000080000000U,
  0xbf041767bf051c05U, 0x80000000beea1c02U, 0xbf2aef2ebed49921U, 0xbf3d9811U,
  0x3efc0206U, 0x3ebb7b283f06e2d9U, 0xbf079dd9bf27bd2fU, 0x0U,
  0x80000000U, 0xbf30cadc80000000U, 0xbeb6845400000000U, 0x3f496af080000000U,
  0xbf2e71423f0c2d5bU, 0x8000000080000000U, 0x3ed149f33f433b9cU, 0xbf156a4d00000000U,
  0x800000003eec09d1U, 0x3f02a19a3eef315dU, 0x3ec7eeb7be87ea5aU, 0x3efe3803be9f28bbU,
  0xbf019ad9bf20c7bcU, 0xbf05f58fU, 0x8000000000000000U, 0x3f1512b280000000U,
  0xbf121b53bef1060eU, 0xbeb412ffbf0f4bf1U, 0x0U, 0x800000003ef58d97U,
  0xbef09315U, 0xbf0d0b3fU, 0xbeca51efU, 0x3eb1eac3bf082fa1U,
  0xbef0b3503eadadd7U, 0xbeb4d1af3ed9c5a0U, 0xbf20c2893ecdc95bU, 0x3ed4aa2bbef42b0eU,
  0xbf276ac8U, 0x3eb0d6103f003a04U, 0x3e9930303ef7e505U, 0x800000003ef57769U,
  0x3ebefd5abf1d2910U, 0x8000000000000000U, 0xbf06bbc080000000U, 0x3ec1e92e00000000U,
  0x3e9033ed00000000U, 0x800000003efb0c57U, 0x0U, 0x800000003eaa2116U,
  0xbf6073d700000000U, 0x3f37b888U, 0x3f046e8200000000U, 0x3f7826c5bef8e942U,
  0xbf325604U, 0x80000000U, 0x3f22f34c80000000U, 0x800000003f17a29dU,
  0xbf4f01663f504984U, 0x8000000080000000U, 0x3f66951ebf63846aU, 0x800000003eddd23bU,
  0x3f05a6e23f01a29bU, 0x3f18ee34bf5fa984U, 0x80000000bf687414U, 0x8000000080000000U,
  0xbf11873580000000U, 0x80000000beebf73bU, 0x3eee70b700000000U, 0x3f22e16d3f517ee1U,
  0x3f28f69b80000000U, 0x3f47180a80000000U, 0x80000000U, 0xbf3f8740U,
  0x80000000bf28fae4U, 0x0U, 0x0U, 0x800000003f4c62beU,
  0x3f2db1b6U, 0x0U, 0x3f3ff93a3f401ddfU, 0x800000003f43b2baU,
  0xbed0a6c13ebc52f4U, 0x3e9e3c6180000000U, 0x3ec39868U, 0xbedeca13U,
  0x3ece573cU, 0x80000000U, 0x3ead292b00000000U, 0x8000000000000000U,
  0xbec0f9b3U, 0x3f0033cbbe9b533dU, 0xbecc2c053ead643bU, 0x80000000bf030d87U,
  0x800000003ead8580U, 0x3e80a13bbed17c8aU, 0xbec8d271U, 0x80000000bed97577U,
  0x3ea0e3613ed84d45U, 0xbed7c877U, 0xbee3d633be8245abU, 0xbeb5f7ac00000000U,
  0xbf09cc913efb35c3U, 0x80000000U, 0x80000000bec35304U, 0x3ec41c2b3eb36fe9U,
  0xbedeb8ae3ec4d4c5U, 0xbe909fe2U, 0x3eedecd880000000U, 0x8000000000000000U,
  0x8000000000000000U, 0x3ed2c37780000000U, 0x8000000000000000U, 0x800000003ea22372U,
  0x80000000beb9874eU, 0x3ef89d7dU, 0x3f127dbbbf01deb6U, 0x3ee58b52U,
  0xbec37815U, 0xbe87852a00000000U, 0xbef8e79900000000U, 0x3eb990f880000000U,
  0x3ea4d02cbf15fa67U, 0xbf07b5a1be9d29b9U, 0xbeb0121ebf0ddad2U, 0x8000000080000000U,
  0x800000003ecaadbdU, 0x3ee9ba1580000000U, 0x3e820cc200000000U, 0xbeaec30fU,
  0x800000003ee4bbe9U, 0xbedf2220bee33cfaU, 0x3eb8cf9280000000U, 0xbeaec7fbbf02c2f6U,
  0x3ec1549e00000000U, 0x80000000U, 0x80000000bebd7184U, 0xbf165b7a00000000U,
  0x80000000bee72f28U, 0x3e94af0dU, 0x0U, 0x3f10fca8bf03dfc6U,
  0x80000000U, 0x3ebfc33cbe9ff2d7U, 0xbeae60fb3ef0841aU, 0x3f033f88U,
  0xbf3c2c2200000000U, 0x80000000bef4beecU, 0xbf3e206400000000U, 0xbf28c3d2U,
  0x3f1a42aebf215e40U, 0xbf4878eb3f3cfea0U, 0xbefd515f00000000U, 0x3ef266c63f339868U,
  0x0U, 0x80000000bf3ce256U, 0x0U, 0xbf03ad4200000000U,
  0x3ee03919U, 0xbf192a3e80000000U, 0x3f5c4a6f3ef65adbU, 0xbf5d9da880000000U,
  0x80000000U, 0xbefe5d8400000000U, 0x0U, 0xbf125bc23f2770faU,
  0x3f32c0afbf67e404U, 0xbf1ca9ee00000000U, 0xbf2c095eU, 0x800000003f77ec05U,
  0xbf4e0c5980000000U, 0x80000000U, 0x800000003f412746U, 0x3f2ac29480000000U,
  0x80000000bf29a58eU, 0xbeec468e3f6a329eU, 0xbef4e99e80000000U, 0x3f1bfb97bf5b805cU,
  0x80000000U, 0xbf0021e3bef04fd0U, 0x3f39b6ee80000000U, 0x3ed259c5U,
  0x8000000080000000U, 0x80000000becb6301U, 0x3f1d9e0300000000U, 0x3f23201dbf0be252U,
  0x3f428610bec51d83U, 0x0U, 0xbf1703bd80000000U, 0xbee81c8dbee942c6U,
  0xbed3c8ecU, 0x3f04cc6d00000000U, 0x80000000bf27705cU, 0x3f2dcf8b80000000U,
  0x800000003ea7c6b3U, 0x80000000bf2db4ddU, 0xbf067a8c3f39cf36U, 0xbf2635a1U,
  0x3f0475aabf04bf1eU, 0x3ef85d733f1d3c93U, 0x8000000080000000U, 0x3f085ce880000000U,
  0x80000000bf423d60U, 0x800000003f3bfeb8U, 0x0U, 0xbf0175033eafd638U,
  0xbf27937080000000U, 0x3f1a771aU, 0x3f0254d13f3493bfU, 0xbeed8d30U,
  0x80000000U, 0x80000000bf20bbc4U, 0x3f4de901U, 0x3f0e3b303f32ad8aU,
  0x3f33bf2400000000U, 0x3ed117e53f1b4a74U, 0xbf0eecd0bed487c6U, 0x800000003f212caaU,
  0x8000000080000000U, 0x3ee5cdf600000000U, 0x8000000080000000U, 0xbf0947623f44a7aaU,
  0x3ecd5bc080000000U, 0x3f1648663f153cfbU, 0xbf4059a0beb2ad83U, 0x80000000bf355bc5U,
  0x3f353aabU, 0x3ebd26b780000000U, 0xbf3d662aU, 0x0U,
  0xbf348ac63ed73bdeU, 0x3f343f19U, 0xbf011d9180000000U, 0x3f3b870800000000U,
  0x8000000000000000U, 0xbee28e5280000000U, 0xbeb970deU, 0x8000000080000000U,
  0x3ebf2dea00000000U, 0xbf1bcf073ebe0528U, 0xbf11f3cabf2b0a14U, 0x0U,
  0xbec1abb7U, 0x80000000beeddb8aU, 0x3ee14fd2bf0079e2U, 0x8000000000000000U,
  0x8000000000000000U, 0x3ebb735480000000U, 0xbf29b93780000000U, 0x3f10dccc00000000U,
  0x3edecd6e00000000U, 0x3ed747b100000000U, 0xbf2a7a9dbf0a3351U, 0xbf124f5580000000U,
  0xbf11913eU, 0xbf17449abf25337fU, 0xbf179ae6U, 0x3ed9bcf480000000U,
  0x3ed0f33e3f26ac1fU, 0xbef77d703f03f975U, 0x3f2ea75e3ef8dc2fU, 0x3f02e4f9bf0fbd94U,
  0xbf24ff463f120f57U, 0xbf106e6800000000U, 0xbf05e10980000000U, 0xbf0f8bed80000000U,
  0x3ec79338bec357a1U, 0x8000000000000000U, 0xbeb1cd8680000000U, 0x80000000bee6ff93U,
  0xbecb74d2U, 0xbf0de88300000000U, 0x3f0e72c3bee1bb51U, 0x80000000U,
  0x3f28efefU, 0x8000000080000000U, 0x8000000080000000U, 0xbeefc16300000000U,
  0x3f16703780000000U, 0xbef02628bec10e2fU, 0xbed50caaU, 0xbebc0204bf243d7eU,
  0xbf15ecf980000000U, 0xbee19052U, 0xbec12d7e80000000U, 0x3f1e52263ee4fafbU,
  0x3f0e774cbf1bbbdcU, 0xbec7789ebf17d32fU, 0x8000000000000000U, 0xbef38265U,
  0x80000000U, 0x8000000080000000U, 0x3f202e5e3ee1ba81U, 0x3f0d1d6c80000000U,
  0x800000003f167ac4U, 0x3ed9d3b9bf047f7dU, 0xbf12cec5U, 0xbebc2a4680000000U,
  0xbf18aa03U, 0x800000003f239399U, 0x3efc3abeU, 0xbf2179a000000000U,
  0x80000000U, 0xbebfc7063ef144a5U, 0x80000000bee33bf2U, 0x3efe8d8080000000U,
  0x3f11a120bef1e969U, 0x80000000U, 0xbf08108e3ebe8c15U, 0x8000000080000000U,
  0xbead0439beecf759U, 0x0U, 0x3f2b7878U, 0x800000003f1d987aU,
  0x80000000U, 0xbec16afdU, 0x80000000U, 0x3ee559803ea177bcU,
  0x3ebafaddU, 0x800000003f011190U, 0x80000000bf1fc2a7U, 0xbf0483b03f0aa725U,
  0xbf0ce454beca505cU, 0x3f0679c9U, 0x0U, 0x80000000U,
  0x8000000000000000U, 0x3ef95aecU, 0x80000000U, 0x3edbb9febf1e3a45U,
  0x3f27ff2500000000U, 0x3f01974980000000U, 0x3f17f38d3ed4504dU, 0x800000003f2a0f7aU,
  0x3ebcb5a480000000U, 0xbf26acb1U, 0x8000000080000000U, 0x3f1f167d00000000U,
  0x3ef8318380000000U, 0x3f24dc0500000000U, 0xbf0d213e80000000U, 0x3f05c0b780000000U,
  0x8000000000000000U, 0x3ee68ebb00000000U, 0x80000000becc5896U, 0x800000003ed73174U,
  0x3f0508e700000000U, 0x3f1dcc2fU, 0xbeb9ce8e80000000U, 0x3f307ffbbf38a2beU,
  0x8000000000000000U, 0xbf25ca64bec9be82U, 0x3eb4d8daU, 0x80000000bf08d1c3U,
  0x80000000U, 0x3f2830bdbf2af8e8U, 0x8000000000000000U, 0x0U,
  0x8000000080000000U, 0x3eade03fU, 0x80000000bf075fe8U, 0x80000000bf11b86dU,
  0x3f0c612b80000000U, 0xbee10ee53f368272U, 0xbee863533f15edc9U, 0x3f321e903f2a97baU,
  0xbed2457a3eff847fU, 0xbf26156b3ef99551U, 0xbf0253a13f039974U, 0xbf0eb6d9U,
  0x3eac8c5780000000U, 0x3f0100b83e847cbfU, 0xbf04617dU, 0x3f069e7500000000U,
  0x3ea0fa9c3e98655cU, 0x3f02a6183efae667U, 0x8000000080000000U, 0x3ea9a955U,
  0x3f0978bfU, 0xbec3c223bea21b90U, 0x0U, 0xbece8a6eU,
  0xbe88f50380000000U, 0x3ec22e9180000000U, 0x8000000080000000U, 0xbf15c003U,
  0x80000000U, 0x3e92d051bf0a7eb6U, 0xbec4209500000000U, 0x3e8e21723eef2b78U,
  0x80000000U, 0xbefb6e1080000000U, 0xbf06a0c180000000U, 0x0U,
  0x80000000bed46371U, 0xbebeadeb80000000U, 0x3eb6af24bf0a266eU, 0xbeb6648200000000U,
  0x8000000080000000U, 0x3e9a59f880000000U, 0x800000003eba10aaU, 0xbe9c1056bebbee1dU,
  0x3f0fb2703efd665fU, 0x80000000U, 0x3f367fb280000000U, 0x80000000bf26b536U,
  0x3f0c53fcU, 0xbecaa4473eb91f8cU, 0x3f28a73c3f2f2d38U, 0x3f0896d6U,
  0xbf4192f580000000U, 0xbf2421daU, 0xbf0f48093ec4b75bU, 0xbf498b78U,
  0x800000003ec5cacdU, 0xbee5bb9d3eefefd7U, 0x800000003f347f9cU, 0x3f3a8f60U,
  0x80000000bed7b40aU, 0x3f2ab97b3ebd8474U, 0xbf0afe5580000000U, 0x80000000bf134cd0U,
  0x80000000bf016a9eU, 0xbf479d853e9af68fU, 0x8000000000000000U, 0x3f30b37abf368d49U,
  0x3f3c66ca80000000U, 0x8000000080000000U, 0x0U, 0x3f256468U,
  0x3f1045babeb4a7b3U, 0x80000000bf04d3daU, 0x80000000bf212e3aU, 0x800000003f29852fU,
  0xbeecdc90bf2cc058U, 0xbed435513ef30b13U, 0xbf53d6fbbef34d8dU, 0x80000000bf2f108cU,
  0x8000000000000000U, 0x80000000bf55755eU, 0x80000000bf62aa46U, 0x3f001e553f1b20b3U,
  0xbed815de3f107759U, 0x8000000000000000U, 0xbf2b788780000000U, 0x800000003ee24e7eU,
  0xbf4639c33f1c2137U, 0x3f32c47fU, 0xbf064f2b3f2b6078U, 0x800000003f101ac6U,
  0xbf2db4db00000000U, 0x3f3d7add00000000U, 0xbf2af7c4U, 0x8000000000000000U,
  0x80000000U, 0x3f4325cbbf3636a2U, 0x80000000U, 0x3f1974363f540886U,
  0x8000000000000000U, 0xbf0f720100000000U, 0x800000003f3b8e25U, 0x0U,
  0x8000000000000000U, 0x3f58460100000000U, 0x3f10159abf3cc46dU, 0xbf1bfd27U,
  0xbedb038f00000000U, 0x3edcdf0400000000U, 0x3ef4a82900000000U, 0xbe9e85a380000000U,
  0x8000000080000000U, 0x3f06bc603eb54171U, 0x3f1d8e063eed00e9U, 0xbf26e1e23ecfe169U,
  0x80000000U, 0x0U, 0xbe9149cd80000000U, 0x3f11a3bcU,
  0x3ebd53cc00000000U, 0x3ea80aecbee4c0a3U, 0x3f254d163f1e7d68U, 0x0U,
  0x3ee8d89abf06a4fdU, 0x80000000bf04e0a1U, 0xbf25348400000000U, 0x8000000000000000U,
  0x3f1c40943f12aae3U, 0x3f04e179bef7a655U, 0x0U, 0x3f2c11f100000000U,
  0x3ed144fdbeddc054U, 0x800000003f007c8bU, 0xbf0b89bfbf25ad09U, 0x8000000000000000U,
  0xbf07abf800000000U, 0x80000000bf21907aU, 0xbec327e300000000U, 0xbf134e243efe097eU,
  0x800000003f26dfe3U, 0xbf383e21bf217360U, 0x8000000000000000U, 0xbf191062beee1f5eU,
  0x3eba6a31bee44ad7U, 0x800000003ec1d314U, 0x8000000080000000U, 0xbee87396bed9a25fU,
  0xbf4a210400000000U, 0xbf2de191U, 0x80000000U, 0x3f393f0f00000000U,
  0x3f242dc8U, 0x3f2feba0U, 0xbf2b2f8000000000U, 0xbed0c11f00000000U,
  0x3edbb25580000000U, 0x3f3d910880000000U, 0xbed197b4bf47791bU, 0xbf158181bef4e7caU,
  0xbf0e667fbede64a5U, 0xbebad3e1U, 0x3f10c45800000000U, 0x3f44f995bf25a92dU,
  0x3f439519bf1a0d94U, 0x800000003f152815U, 0x3ef09421U, 0x80000000bf27213bU,
  0xbf38848a3f38c203U, 0x3f4d76ea3eebf664U, 0x3f17e1db3edbd236U, 0x3f26934e00000000U,
  0xbf089a4bU, 0x80000000bf3b4ce4U, 0x3eaa5b43bf125d84U, 0x3f45930980000000U,
  0xbf1200a23f0a2c07U, 0xbf170288bec2d409U, 0xbf07ce223f428880U, 0x8000000080000000U,
  0x3f2c1791bf3afc10U, 0xbf321ee0bf372cd8U, 0x8000000080000000U, 0xbee017b1U,
  0x80000000bf12fb08U, 0xbec576c300000000U, 0xbf40014680000000U, 0x800000003ee02badU,
  0x8000000080000000U, 0x3f117bae3f3538ecU, 0x80000000U, 0x3f10359f3f3d2ecbU,
  0xbf3db5e1bf45e10aU, 0x3ed3b2c180000000U, 0x3f3739fe80000000U, 0x3f42faa83eead656U,
  0x8000000000000000U, 0x3f08580bbf264334U, 0x3f5276ecU, 0x800000003f0f7dd6U,
  0xbf02714f3f129332U, 0xbec56a743eed0ad4U, 0xbf19cfebU, 0x8000000000000000U,
  0x80000000U, 0xbe94b47000000000U, 0x3ed90d8bbea4ba84U, 0x80000000U,
  0x3efc976b00000000U, 0x3e7cf636U, 0x3e960d1b80000000U, 0xbeaf3af500000000U,
  0x8000000000000000U, 0x8000000080000000U, 0xbeeda1963eaaa1b4U, 0x3e35234e3e89c7aaU,
  0xbee1a18bU, 0x3e8cc0983eec6496U, 0xbe91d7bb80000000U, 0xbebb913bbeba674bU,
  0x3eb8c9faU, 0x3e8499e3U, 0x3ec6eac6U, 0x3e8bb1163e92521dU,
  0xbe436925U, 0x3ec4c4d080000000U, 0x3e625db33e9485c6U, 0xbe80164100000000U,
  0x80000000bebb01a9U, 0x8000000080000000U, 0x3e7e0a2200000000U, 0xbebec258U,
  0x80000000U, 0xbeb9266aU, 0x80000000beb86348U, 0x800000003e7006eeU,
  0x8000000000000000U, 0xbf1983e1U, 0xbedf621d80000000U, 0xbf240da33ef3e141U,
  0xbf24c4bf3f05fb5cU, 0xbef0aa51bea3ce19U, 0xbef0e22c00000000U, 0x3f22fbb9bf211614U,
  0x3efdad54bee27e35U, 0x3eee6d7bbf0d5cebU, 0xbf10b805U, 0xbf1f0b01U,
  0xbeb5f6693f0ad6acU, 0x3f2ad078U, 0x8000000080000000U, 0x3f26cc4fbf1bcca0U,
  0xbf034c9a80000000U, 0xbed457f800000000U, 0xbed1034e00000000U, 0xbf2b48e43ec77bb2U,
  0xbf06aeefbed017acU, 0x3ee87119bea15417U, 0x3eb5efda3ea2c603U, 0x3ec4033cU,
  0x3f0e3ddb80000000U, 0xbf215d3780000000U, 0x3f2c88debf0825f7U, 0x800000003f0a1304U,
  0x80000000bf16d4dfU, 0xbf0b07213f2a087cU, 0x3f290b8100000000U, 0xbed5e0d3bf155578U,
  0xbee9e94c3ee8cf87U, 0xbed131c4bee5266cU, 0xbf18adda00000000U, 0x3ef867e2U,
  0xbf19f854be8c4d2aU, 0x8000000000000000U, 0x80000000beb516fdU, 0xbea67c13U,
  0x3e9fb3623eea8313U, 0xbf0a349480000000U, 0xbefda2783ec7c4d0U, 0x80000000be8e52c4U,
  0xbf1b0ffdU, 0xbee8911c80000000U, 0x3f1486bdbf04be57U, 0xbef56f50U,
  0x3eaea537U, 0x3e93fe3bU, 0xbe9e1600bf200a0bU, 0x3f1bcb473ecfd746U,
  0x800000003ec724a3U, 0x800000003eaa4a50U, 0xbea8c2ccbecc4390U, 0x3ebb4f09U,
  0x800000003ebe13f5U, 0xbe8cdabe00000000U, 0x8000000080000000U, 0x3f22ebeabf080cd9U,
  0xbefdc10eU, 0x3ee2c74b00000000U, 0x3ece75d0bef57058U, 0x3f07ff5980000000U,
  0xbf33388480000000U, 0x3f042e30bf0773e0U, 0x3ec9f1f1U, 0xbf2d591cU,
  0x800000003ed89e27U, 0x3f0fb00100000000U, 0x3f180b4580000000U, 0xbf17c08dU,
  0xbf01875e00000000U, 0x8000000000000000U, 0xbf0794c700000000U, 0x3ef9dd16U,
  0xbf1a3205U, 0xbf3dbcf380000000U, 0xbf303fe93eed22fbU, 0x0U,
  0xbf0f470aU, 0x3ed9660ebf14a47aU, 0xbedbf0b1U, 0x3f2e22beU,
  0x3f36283a80000000U, 0x3f3aa24300000000U, 0xbedcd134U, 0x0U,
  0x3ec782c63f293d4eU, 0x3ed2de833f369fe8U, 0x3f187998U, 0x8000000080000000U,
  0x80000000U, 0xbefe15cd00000000U, 0xbf34ecdb3f4376daU, 0xbef5b514bf2279d8U,
  0x3eb5f47fU, 0xbf04cc2400000000U, 0xbef77fe03f0b70ceU, 0xbecf48bcU,
  0x3eb3dea1U, 0xbedff812U, 0xbea1f9bf00000000U, 0x3ee5b1e43ec1e252U,
  0x3ef4a88100000000U, 0x3f018b7d00000000U, 0x3ec7f0f1bf120b75U, 0x3ec43bf0beaedaccU,
  0x8000000000000000U, 0x3eb4174bbeb0d98eU, 0x80000000U, 0xbf04adadbe90086cU,
  0x0U, 0xbeddccf03efba83fU, 0x800000003ef63a5dU, 0x80000000bef761a7U,
  0x80000000U, 0x8000000000000000U, 0x3ea70dd080000000U, 0xbe997f4e00000000U,
  0xbec04ffd80000000U, 0x3f0e297f3eff6eb5U, 0x3ed543223ec1989dU, 0xbf10d4473ecbe73fU,
  0x3ee7d0b9beaa8595U, 0x3f08a6e9bf15dfb6U, 0x0U, 0x8000000080000000U,
  0x800000003f45d883U, 0x3f1bae2f3f22174cU, 0x800000003f079cd9U, 0xbf1c824b80000000U,
  0xbf069a9d00000000U, 0x3f30d3e2U, 0x3f46ba3cbf4bb724U, 0xbf1af4bc00000000U,
  0x80000000U, 0x3eded39b80000000U, 0x3f06a27bU, 0xbec04638U,
  0x3f3013043f3b5a2dU, 0xbf0110a500000000U, 0x3f21e3b03f49ea4dU, 0x3f2c87b400000000U,
  0xbf3540323ef79746U, 0x3f3972f03ed91abaU, 0x3f3ab095bf643cefU, 0xbf20327f3edea137U,
  0xbf09ab3d00000000U, 0x3ec6c40e00000000U, 0x80000000bf0ae548U, 0xbed99ced3f586755U,
  0xbefa492100000000U, 0x800000003ed4b9b2U, 0x3f33453fU, 0x0U,
  0x3f40e28180000000U, 0xbef2745aU, 0xbf5c33463f495c9dU, 0x3f0591cc80000000U,
  0xbf0db21080000000U, 0xbf2dfaa0U, 0x3f10f2c3bf25de80U, 0xbf531925U,
  0x80000000U, 0x3f323aeaU, 0x80000000bef36cc4U, 0x3f08ec3b3f1ae09cU,
  0xbf145a8580000000U, 0xbf385a763f053e6dU, 0x3efa85a280000000U, 0x80000000bf51c9adU,
  0x3f0a11d83f076193U, 0x3f2e5c5bU, 0xbf3d59dc80000000U, 0x3f48de6580000000U,
  0xbf05ab8680000000U, 0x3f64c55080000000U, 0xbed2cfa900000000U, 0x8000000080000000U,
  0xbf1f2a48bec5509fU, 0x3f2ffba1bf412fa7U, 0xbef56480bf337f0bU, 0xbf4708b3U,
  0xbf28ef9500000000U, 0x3f5335a1U, 0x800000003f1757c4U, 0x3f3644733ede3ce0U,
  0x80000000U, 0x3f248b193f6939c5U, 0x3f07f54600000000U, 0xbf2bd7c700000000U,
  0x3f4d16cb80000000U, 0xbf2068e180000000U, 0xbf1cb68a3f51de3cU, 0x800000003f1bdd4dU,
  0x3f21ec89bf5659c3U, 0x80000000bf5cf754U, 0xbf04a77eU, 0x8000000080000000U,
  0xbf0577423ec72cdeU, 0x0U, 0x0U, 0x80000000beed7baeU,
  0xbf093557bf016391U, 0x3ee82fbebf37656dU, 0x800000003ed43d17U, 0x80000000U,
  0x8000000080000000U, 0xbf00232600000000U, 0xbf175bb480000000U, 0xbf2534fcbf2969e2U,
  0xbf2c145080000000U, 0x3f1badbd3f2f75deU, 0xbf59ab2dbf2f5d61U, 0x8000000080000000U,
  0x3f4cd051bf52f2b3U, 0xbf3e633980000000U, 0xbefe38933f3b70bfU, 0x3f3a683bbf08bb2fU,
  0x800000003f0dc67bU, 0x80000000bf293a52U, 0x3f12e2dc00000000U, 0x80000000bf287269U,
  0x3ebf169d00000000U, 0xbf0f80d8bea15db0U, 0x8000000080000000U, 0xbf179fb33ec106ecU,
  0x0U, 0x8000000080000000U, 0x800000003e77f577U, 0x3e9ad7d6bea20ed6U,
  0xbea3007600000000U, 0xbeec00efU, 0x80000000U, 0x0U,
  0x3ea2c35ebea1e78fU, 0x80000000U, 0x8000000000000000U, 0x3ee2878d3eb1dc01U,
  0x0U, 0x3eb7aab8be88b3abU, 0xbf128b31U, 0xbef18b863e9587d6U,
  0xbef7caf280000000U, 0xbe8e52fe00000000U, 0x0U, 0x80000000U,
  0xbebc08c0U, 0x80000000beff0147U, 0xbec51406befb80c6U, 0x8000000080000000U,
  0xbef3e33180000000U, 0x3eb200a43f03743dU, 0x3e88ddb73ed1231fU, 0x3ed2f85aU,
  0x0U, 0xbeadfc4780000000U, 0x8000000000000000U, 0xbf001f703f0ed595U,
  0x0U, 0x80000000beae3e2aU, 0x3f09edb4U, 0xbe8d29b93e9fc7a2U,
  0x3ebd1484U, 0x0U, 0xbf0827f200000000U, 0x80000000U,
  0x3eb692ab3ea83ce4U, 0x800000003eb2d743U, 0x3efdcc5300000000U, 0x3ef04bb380000000U,
  0xbea238983eabafdeU, 0xbeeeb0aebef493c4U, 0x3eedd89dbf062ea2U, 0xbe8fa51900000000U,
  0x8000000000000000U, 0xbf0969ea3ee68ef4U, 0x3e95028d00000000U, 0x3edb2e7e00000000U,
  0x800000003ed5cc94U, 0x80000000befae4b3U, 0x3edb835380000000U, 0xbed32d81be8eb230U,
  0xbedb676f3ebf270fU, 0xbf0878f100000000U, 0x3f03f68ebe93b64cU, 0x3e67b26d3eaae107U,
  0x80000000bf2aaf37U, 0x800000003f10baaeU, 0xbf02de5980000000U, 0x800000003efb743cU,
  0x3f56e7ac80000000U, 0x8000000080000000U, 0x8000000000000000U, 0x8000000080000000U,
  0xbf394ca780000000U, 0x8000000000000000U, 0x3f40551200000000U, 0x3f0a9d983f556f37U,
  0xbf10a2b400000000U, 0x0U, 0xbef6c00b00000000U, 0xbf506c53U,
  0x3f5d7f153f06c207U, 0xbf227f62U, 0x800000003f0d6a6dU, 0x3f04380dbf140a44U,
  0xbf092c30bf35c0f6U, 0x80000000U, 0x80000000bf2d3b35U, 0x800000003f31c57bU,
  0x800000003f2d2d40U, 0x8000000080000000U, 0xbf3975c800000000U, 0xbf1c6b2c3f443e74U,
  0xbee467a43f2446d7U, 0xbf02e37a3efb667fU, 0x3f11854fbf057347U, 0xbf0e7aa23f2a069dU,
  0x8000000000000000U, 0xbee58ff280000000U, 0xbecdd4493e9a2c50U, 0xbf14257780000000U,
  0x3ee3a39100000000U, 0x3ef29423bea1d662U, 0xbf1aa04d80000000U, 0x3ef61ad600000000U,
  0x3ea98be53ee2feaeU, 0x3ed27d4580000000U, 0x3e96a92dbe98db36U, 0x3ebb003fU,
  0xbef5170980000000U, 0x0U, 0xbe92ec0200000000U, 0x8000000080000000U,
  0xbf21194abf058280U, 0xbf02e467beded405U, 0x3ebed7503eb32622U, 0xbea12a7900000000U,
  0x80000000U, 0x3eee27c5bf06dbcaU, 0xbef4b0d0bf048366U, 0xbed28fda00000000U,
  0x3e8d5512U, 0x8000000000000000U, 0xbf06d67fbeead6f7U, 0x8000000080000000U,
  0x3eb650d33ee7c4abU, 0x3e6ea7cdU, 0xbf05a6543e8846f3U, 0x3ef347a280000000U,
  0xbeceaf5000000000U, 0x800000003e90993cU, 0x80000000be9b5513U, 0x8000000080000000U,
  0xbea821913ef5389dU, 0x3ee9a21b3e87fccaU, 0x3eee6f0ebec9d09eU, 0xbefdaa05beee684dU,
  0x3eb4ed2580000000U, 0xbed546b0U, 0x0U, 0xbe829cc4U,
  0x3eb660bdbed6af6eU, 0xbe812535be873c7bU, 0x3e7be4703e85ca6fU, 0xbf09428080000000U,
  0xbeb47a4680000000U, 0x3eac43fdU, 0xbeaa3a5d3ef8546dU, 0x3e60e40180000000U,
  0xbeb8331e80000000U, 0x800000003eb9f866U, 0x3ed9eeb800000000U, 0xbebb8f0f00000000U,
  0x0U, 0x3eec35ee00000000U, 0x3edc2790bee3ec5bU, 0xbed40d5fbe6a3512U,
  0xbee35be0U, 0xbecb2e2400000000U, 0xbec3ef8800000000U, 0x80000000be99b7edU,
  0xbeefd529bf1984ddU, 0x3f163ad3becac36aU, 0x8000000000000000U, 0x3f0864bcU,
  0x800000003f0ce510U, 0x8000000080000000U, 0x3ece7a1680000000U, 0x3f115577U,
  0x3f24973ebf246e51U, 0xbec0332abf29b308U, 0xbf152c423f2db96eU, 0xbf0fa38700000000U,
  0xbf15516900000000U, 0xbebce0e6bf153e9eU, 0xbeb999f000000000U, 0x800000003f2ad37fU,
  0xbebd509080000000U, 0x80000000befa5264U, 0x3ee3649780000000U, 0x3ed3281eU,
  0x0U, 0xbf0fa9cc00000000U, 0xbf3d114100000000U, 0x80000000beece44aU,
  0x3f1e5f063f357cdbU, 0x3f1f8937bf32f87fU, 0x8000000000000000U, 0xbf20e56abf01e04dU,
  0x3eaf3bc400000000U, 0x0U, 0x3ed74d5e00000000U, 0x8000000000000000U,
  0x800000003e985aebU, 0x0U, 0xbe52a75800000000U, 0x8000000080000000U,
  0x3ee96c89bea0651aU, 0xbeb5f8ad00000000U, 0x3e93a169U, 0x800000003e5bae44U,
  0x8000000000000000U, 0x3e9e165c80000000U, 0x8000000000000000U, 0x800000003ead78e8U,
  0x80000000bebd8ffbU, 0x3e466323beadea0eU, 0x0U, 0x3e89dbc700000000U,
  0xbece7a6fbea88d76U, 0x3e8402aebebdf50eU, 0x80000000be4d5c11U, 0x80000000U,
  0x3e883b443ed7704bU, 0x800000003ebe2fa0U, 0xbea161383e7daa25U, 0x8000000000000000U,
  0x80000000bed33078U, 0x3e6b62e93ea2eb62U, 0x3e8008fa00000000U, 0x3eb18d5d00000000U,
  0x8000000000000000U, 0x3ecbccd700000000U, 0x3ec22ccdU, 0xbecf60a43e57e5f0U,
  0xbef5304800000000U, 0x0U, 0xbec663263ea834efU, 0x3e9bf16480000000U,
  0x800000003ef835c5U, 0x3eb1971180000000U, 0xbf03e73780000000U, 0xbee854873ec87f7bU,
  0xbed3e46bbf00107dU, 0xbf0adea23ed72a3aU, 0x3eb900f2U, 0x80000000U,
  0xbf02143800000000U, 0x3f09f80900000000U, 0x0U, 0x3eb2c2933f0c3a48U,
  0x3eb95692bebea0edU, 0x800000003ed0f88cU, 0x3ea29d05bee1dddbU, 0xbee9c34dbf0082bbU,
  0xbebad5fcU, 0xbeb47bc63ed30c23U, 0x800000003ec144ddU, 0x3eb220a3bec999cfU,
  0x0U, 0x3edac670bed29c73U, 0x80000000be994511U, 0xbf0ac79800000000U,
  0x80000000U, 0xbf0d498700000000U, 0xbee03785U, 0xbed25e36beedf378U,
  0x80000000bf3b83dbU, 0x0U, 0x3f117cd7bf0e8ed5U, 0x8000000000000000U,
  0x3f16ec86beeec865U, 0xbf0d2273U, 0xbf53e45eU, 0xbf21d92800000000U,
  0x8000000080000000U, 0xbf531784bf7101f8U, 0x0U, 0xbf5f08e080000000U,
  0x8000000000000000U, 0x3f41ed8bU, 0x3f43c4b83f16b537U, 0xbf018ff73f28b0e2U,
  0x3f05485bU, 0xbf0ec2fe3f04399aU, 0x80000000bf522c53U, 0xbf0e330f80000000U,
  0xbf45c83200000000U, 0x3ec2371bU, 0x3f25d3c800000000U, 0x3f16587a3f096511U,
  0x3f1b41f1bf0ed820U, 0xbf58e5debf37b544U, 0x0U, 0x3f1fc13aU,
  0x3ef280aa80000000U, 0xbf0be3e63f33f042U, 0xbf41a42600000000U, 0x0U,
  0x3f0b170180000000U, 0xbeb10a6fbef06882U, 0xbf256368U, 0x80000000U,
  0xbed53bb100000000U, 0x3eed4132U, 0x3f03aaa6bf0f2edfU, 0x3f1e9c5200000000U,
  0x800000003f22a0b2U, 0x800000003f1206ebU, 0x8000000000000000U, 0x0U,
  0x800000003f0961d8U, 0xbf2619c080000000U, 0xbefb07f100000000U, 0x3ec41c543f28196cU,
  0x3ef43fae3f01431dU, 0x800000003ee7251aU, 0x8000000080000000U, 0x3f0176dabf2a6b1fU,
  0xbed254483f07c9c3U, 0xbec5b79b80000000U, 0x3eab887480000000U, 0x8000000000000000U,
  0x3f0a33a780000000U, 0x3ef8c6c3U, 0xbe98d67cbf24f770U, 0x3f375a8000000000U,
  0xbed697393f0a5de5U, 0xbe915299bf1cf25bU, 0x8000000080000000U, 0xbf1645ceU,
  0x0U, 0x3f2851e6U, 0xbf2ca1f1U, 0xbf26befc00000000U,
  0x80000000bf17e5c8U, 0x8000000080000000U, 0x3ec125523f30c80cU, 0x80000000bece4f74U,
  0xbee6617aU, 0x3f20b1c7U, 0x0U, 0x80000000U,
  0x3f1d7f99U, 0x8000000000000000U, 0x3f1aba34U, 0xbef6cb9180000000U,
  0x3ec2c49bbf24df39U, 0xbf1d03e0U, 0xbf10d81600000000U, 0x80000000befa1ecaU,
  0xbed462b1bf12bc22U, 0xbf14ae03bf442020U, 0x3ed4d3ba00000000U, 0xbec80cedU,
  0x3f168da6bf30ccd9U, 0x800000003f02be5eU, 0xbef3450280000000U, 0x80000000bf2e4fefU,
  0xbee2a36600000000U, 0x80000000bf39400dU, 0x8000000080000000U, 0xbf0f89ce80000000U,
  0x80000000U, 0xbf1c4e3fU, 0xbf26bab03f338946U, 0x3f13d78a3ea73275U,
  0xbebb674d3ec191e3U, 0x3f14b3f0bed67d95U, 0x3f0527fd80000000U, 0x800000003ef3ca0fU,
  0x800000003eb690b4U, 0x3f0fbadfbeb9091dU, 0xbe8cf9d9bf1891cdU, 0x3ed8ab44bf141d19U,
  0x3ec6dcbe80000000U, 0x3ef5bbb000000000U, 0x8000000000000000U, 0x3edcdc5cbf218c4dU,
  0x3e933d9bbe98eef5U, 0xbec948d13f032bb9U, 0xbef09566U, 0xbef402b780000000U,
  0x8000000000000000U, 0x3f1024e8bec6c485U, 0x3ea54f4b80000000U, 0xbf29041d80000000U,
  0x3ed4c612bedec345U, 0x3ecf61513ea2ae87U, 0x80000000bf06beb6U, 0x3f06ea4c00000000U,
  0xbed57580U, 0x8000000000000000U, 0xbf2c2e6f00000000U, 0x3ec76bcbU,
  0xbec40fdfbefef6b9U, 0x800000003ea5127bU, 0x3eb86457U, 0x80000000U,
  0x800000003f03b9aeU, 0xbee1b04ebeaf8666U, 0x0U, 0x80000000U,
  0xbeb8b267bf0775ffU, 0x3ebdaeb93f0e5d67U, 0x80000000bf0bd9f7U, 0xbf07d46400000000U,
  0xbec37f1900000000U, 0x3e9e11173edb6c95U, 0xbf1ae2743f0d4118U, 0x80000000U,
  0x3ed9e4fd00000000U, 0x3f10c521beda0edeU, 0x800000003eb4a0a3U, 0x800000003ec78ce2U,
  0x80000000bf2a561aU, 0x80000000U, 0x3f0f68ac80000000U, 0x3eb7bc5800000000U,
  0x3f112765U, 0xbf18f03cU, 0x80000000bf0f06d3U, 0x0U,
  0xbf08b3f63ef08a51U, 0x3f0b201980000000U, 0x3f0ad3b100000000U, 0xbeee884000000000U,
  0x80000000befc43adU, 0xbee46a7dbf0963f4U, 0xbf15ed7fU, 0x3f276b9d00000000U,
  0xbf13d79a00000000U, 0x8000000080000000U, 0x3eec3c8b3ef1452eU, 0xbf1af1c5bed406f2U,
  0x8000000080000000U, 0xbf12871200000000U, 0x80000000U, 0x8000000000000000U,
  0x80000000U, 0x3f0f689500000000U, 0xbecae0c8bf0238e5U, 0x3ebd99f8be9c32bdU,
  0xbf107856bec53686U, 0x3eb6533aU, 0x80000000U, 0x80000000U,
  0xbec7ecac3f069a2aU, 0x3ea6b4d300000000U, 0x80000000U, 0xbeb12b8f80000000U,
  0x8000000080000000U, 0x3efc6e543f2265a4U, 0xbebd9afabee2f7ebU, 0x80000000be9da2e8U,
  0x3ed7c177U, 0x3f09f53ebf1d9d89U, 0xbe974a6200000000U, 0x8000000080000000U,
  0xbeea978bU, 0xbf37d6ad3f39c408U, 0x3f399a5280000000U, 0x3f36d3f380000000U,
  0x0U, 0x3f4ebe76bf41c6ecU, 0x3f1872f6bf54190cU, 0xbf4d9be13edcfccbU,
  0xbebf4dc100000000U, 0xbf08007aU, 0x3f054f64bf251505U, 0xbf16ab923f2da8b0U,
  0x3ec882dcbf190b29U, 0x8000000000000000U, 0xbeea9854bf299668U, 0x800000003f0c37f4U,
  0x3ee9062e80000000U, 0x80000000U, 0x3f0371efU, 0x800000003ec74160U,
  0x8000000000000000U, 0xbf3b8f9800000000U, 0x80000000bf337f4bU, 0x8000000000000000U,
  0x3edfddd800000000U, 0xbf0504e23f077a74U, 0xbecd8a8680000000U, 0x80000000bf2c2bafU,
  0x800000003eea13cdU, 0x80000000U, 0xbf05bf1a80000000U, 0x80000000bf382536U,
  0x8000000080000000U, 0x800000003ecc54b4U, 0x80000000U, 0xbf336d3bbef6be44U,
  0x3f072fa7U, 0x3f39ad50bf153106U, 0x80000000bf51cfdbU, 0x0U,
  0x0U, 0xbeff574b3f22d163U, 0x8000000000000000U, 0x8000000000000000U,
  0x3f200bec3f409450U, 0x3ec53d01U, 0x8000000000000000U, 0x80000000bef678ffU,
  0x80000000U, 0xbf1a27a580000000U, 0xbee38e693f00cb23U, 0x3f3309a1bf0118c8U,
  0xbf1f65f480000000U, 0x0U, 0x8000000080000000U, 0x3f21c182beda0a75U,
  0x3f13002700000000U, 0x3ed7bfaa3f225108U, 0xbf3013aa3f05853dU, 0xbf044c80bf3fb3aaU,
  0x3f3fca8f80000000U, 0x80000000beed814aU, 0x8000000080000000U, 0xbeb6226300000000U,
  0xbf6bc9dbbf55587eU, 0xbedef97fU, 0xbf37084680000000U, 0x3f14fdd1bf3753dfU,
  0x3ef03ca100000000U, 0x8000000080000000U, 0x3f1510adU, 0x3f2fc93aU,
  0x3f502acc80000000U, 0x80000000bf398d50U, 0x3f4785b1U, 0x8000000080000000U,
  0x800000003f4c45e9U, 0x3f32368dU, 0x3f5d90aabf1d1b14U, 0xbf51f75d80000000U,
  0x8000000000000000U, 0xbf41b3b8bf085626U, 0x3f099b3e00000000U, 0x0U,
  0x8000000000000000U, 0x3f57b21e80000000U, 0xbf29437e3f5051bcU, 0x80000000bf6632d1U,
  0xbf57c4ddU, 0xbeef4c17bf129aa0U, 0x3f07afb63f218ffaU, 0x3f2b980c3eedd563U,
  0xbf09deb93f29e3fbU, 0x80000000U, 0xbeecc622bf0ddad2U, 0xbf30fd31bf2baf13U,
  0xbed7ef2f00000000U, 0x800000003ecccdbfU, 0x3efb4678beb2f745U, 0x3e8a702300000000U,
  0xbed152b500000000U, 0x3efb6bc33e8d6d84U, 0xbef2cf1c00000000U, 0x3ec3dc0280000000U,
  0xbe926ce900000000U, 0x80000000bebc2ce7U, 0x80000000bf040c32U, 0xbebc06fb00000000U,
  0x80000000U, 0x80000000beeb8f3dU, 0x800000003ee7b5bdU, 0x3e71be0500000000U,
  0x3ee7d35700000000U, 0x80000000U, 0x80000000beb64d2cU, 0x3ea80dceU,
  0x3eea8b5cU, 0x80000000bea9abb2U, 0xbe859754bee3310eU, 0x3ea237b7U,
  0xbef247e63ee91e03U, 0x800000003ec99071U, 0xbee01d09U, 0x3eef01fbU,
  0x0U, 0x3e91669d00000000U, 0xbf03f96900000000U, 0xbf07381dU,
  0x3f0f8695bf2896e9U, 0x3f3119ae80000000U, 0x3f3e040e3f119db5U, 0xbf11e26180000000U,
  0x8000000080000000U, 0xbee066cf3ec97b71U, 0x3f2354173f59efceU, 0x3f1996feU,
  0x80000000U, 0x80000000U, 0x800000003ef8e8f8U, 0x0U,
  0xbf1c4ddc00000000U, 0x0U, 0x80000000bf3c0d8eU, 0x3f3355a980000000U,
  0xbf44ec86bf37009dU, 0x3f1e6b38bf18170cU, 0xbedd1ad1U, 0x80000000becf74a8U,
  0xbf123e4c3f6b2394U, 0xbf4a7c18bf05b23cU, 0x80000000bf057ecaU, 0x3f1a8d2b80000000U,
  0x8000000000000000U, 0xbf34d8a1bf1ff72eU, 0x3ee4d9fe00000000U, 0xbf4bb5a2U,
  0x80000000bf51f3d5U, 0x0U, 0x3f06d069bf343db8U, 0x3f2d965c3f5bdc9bU,
  0x80000000be9eb25eU, 0xbf2a1ff9be97676aU, 0x3f0122ad00000000U, 0x3eefae8aU,
  0x3efbbd32bf3767b5U, 0x800000003f060465U, 0x3f0bae9d3ef68ff8U, 0x80000000U,
  0x80000000bed943e8U, 0xbf29a93f3ee966d8U, 0x3f02adee3f3017ffU, 0x80000000U,
  0xbf1806b4bed92175U, 0x80000000U, 0xbebf484880000000U, 0x3f2f07793f3aeb32U,
  0x3ebf79b53f06059bU, 0x80000000U, 0x3f396f1780000000U, 0x3f06d6713f0e3bbcU,
  0xbf059d5d3ed02444U, 0x80000000bf194edfU, 0x80000000U, 0xbf0a8df8bedde0caU,
  0xbeb53003U, 0xbedcb57600000000U, 0x3f2179b480000000U, 0x3f30a4e53ebd53e2U,
  0xbee8373cU, 0x80000000U, 0x3ebbaa7b3eeef238U, 0x3ed83ebe00000000U,
  0x3eaa6cd23eedae30U, 0xbf15049300000000U, 0x8000000000000000U, 0x0U,
  0xbeb1eaeeU, 0x3eb29d8bU, 0x8000000080000000U, 0xbf09de0f80000000U,
  0x3eeecf2f80000000U, 0xbf0ba7cc80000000U, 0x3ee3681980000000U, 0x8000000080000000U,
  0x8000000000000000U, 0xbef32e873e8cd84bU, 0x3f2811b880000000U, 0x3ecdbfbc00000000U,
  0x800000003e9d68dbU, 0x3f018eb73eb3de54U, 0xbf02875ebf0f8668U, 0x800000003ed86c1eU,
  0x80000000bf063ec9U, 0xbec3d5a73ee2cdf0U, 0x0U, 0x80000000bf0741fcU,
  0xbe8400bb00000000U, 0xbeed88a9U, 0xbeac9f94U, 0x3f05d7e33ec70d23U,
  0xbf069a27beb39b97U, 0x3ed7b40c00000000U, 0x3edfb2ed80000000U, 0xbf082e91bf050a11U,
  0x3e8aa92580000000U, 0x8000000000000000U, 0xbecc35e8U, 0xbe7259f8beb1a9a1U,
  0x80000000U, 0xbebdce9b3e95ed35U, 0xbe9df38cbed20d97U, 0x800000003ea408edU,
  0x3ee0d84280000000U, 0x8000000000000000U, 0x80000000beedef2fU, 0xbf01ad06be7fc2b7U,
  0x3ed5ee3f00000000U, 0x3ec2e4ebbea6af41U, 0x0U, 0x3ee8512000000000U,
  0xbeab7cb000000000U, 0xbecd755880000000U, 0xbe9a28c0bec95d28U, 0x3eda491300000000U,
  0x800000003e78b6c5U, 0x3ebf2b1580000000U, 0x3eec0afe00000000U, 0xbe87dacf00000000U,
  0x3ef8ccf0be7f4581U, 0x3ee8d2173ee94351U, 0xbebcbd7580000000U, 0x3e8a049400000000U,
  0xbea477333e85af1cU, 0xbe967a9280000000U, 0x80000000U, 0x8000000000000000U,
  0x3f03ccf1bf40225eU, 0x3f03ccda80000000U, 0x8000000080000000U, 0xbf12c16bbf182a87U,
  0xbeec22a500000000U, 0x3eb3d3f400000000U, 0xbec90e7abf0e5f3aU, 0x3f010375bf1d6059U,
  0x80000000U, 0x8000000080000000U, 0xbf0f359b80000000U, 0x3eccc6e7U,
  0xbeb559e500000000U, 0x3ee0aac300000000U, 0x3f17910000000000U, 0x0U,
  0xbf2f7029U, 0xbec4d2a63ec45869U, 0xbee3fa1300000000U, 0xbf084e3e00000000U,
  0x8000000000000000U, 0x8000000080000000U, 0x80000000beadd194U, 0x80000000bf1fab8fU,
  0x3f3e497780000000U, 0x3f18d23700000000U, 0x80000000bf1b8775U, 0x3f3394dbU,
  0x0U, 0x3f1681bb80000000U, 0x3f0e670b3ef5d483U, 0x3f0674d3bf158505U,
  0xbf0c1de8U, 0x3f237b4dbf3ed52eU, 0xbf36239b00000000U, 0x3f50ddd83f14a943U,
  0xbea8183f80000000U, 0xbf525527bf474979U, 0x3f073aee3f22103fU, 0xbebdd16400000000U,
  0x3f3308cf80000000U, 0x800000003f3bdcc4U, 0xbf081af500000000U, 0xbeee83b3U,
  0xbefe37da80000000U, 0x3ed859f13f0d71d3U, 0x80000000U, 0x3f53edab00000000U,
  0x8000000080000000U, 0x3f1b2ac73f30b228U, 0x3effdfaf3f16a4a4U, 0x3f2e4b943f07e745U,
  0xbf07b9b4U, 0x80000000U, 0xbeef62b2U, 0x3f3d34f080000000U,
  0x3f5a5f7b3ed1f680U, 0x8000000080000000U, 0x3ecb59ee3f1144aaU, 0x3f3ef6ad3f35d79fU,
  0x3f607848U, 0xbf0999bc3f4bc15dU, 0xbee4b37cbf2aec5aU, 0x80000000bf417858U,
  0x3ea30423beae59a6U, 0x8000000000000000U, 0xbf07ded6U, 0x3f0ce3d9bf15ffaeU,
  0xbec2929500000000U, 0xbe9c072100000000U, 0xbedfb1acU, 0xbed7fb6e00000000U,
  0x80000000bf1183b2U, 0x3eedf3b9U, 0x80000000U, 0x3f0328e23ec7bd11U,
  0x3eea87403eaf761cU, 0x8000000000000000U, 0xbea7f176bf1a6640U, 0xbe98e70fU,
  0x8000000000000000U, 0x3f1460ca00000000U, 0x3ebfe6b9bebbef3aU, 0x80000000bf012b8aU,
  0x3f0c3bba3ee7a5d7U, 0x3f091f293ed79d11U, 0x3e9528c7U, 0xbf0dd441U,
  0xbefdb03180000000U, 0x3f0a7e09bedad01fU, 0xbeb62f3780000000U, 0x0U,
  0x3ec7571f3f15d26aU, 0x0U, 0xbf0ea58e00000000U, 0x800000003e9bad05U,
  0x3ed642923f035508U, 0xbeee30cebf2012d9U, 0x800000003f07f21bU, 0x3f0f63fdbedc84b2U,
  0x0U, 0x80000000U, 0xbead3e073ee8f059U, 0xbec6e092U,
  0x800000003ee70c52U, 0x80000000bf106ca9U, 0xbf0c09c2U, 0x3e940ac5U,
  0x3f16a8053f00da00U, 0x80000000U, 0x3f127d3bbeddb9a2U, 0xbee92901U,
  0x8000000000000000U, 0x3f0fb3c0bf1dd8f7U, 0x3e90a99180000000U, 0xbee5eb2e00000000U,
  0x3f167e4d3e87aad7U, 0x3ee70cc23f234458U, 0x3f1e59d1U, 0x3f0a46a000000000U,
  0x8000000000000000U, 0xbeba85cb80000000U, 0x3ee75ac3bf127a57U, 0x8000000080000000U,
  0x3f06b8c83ee0d42aU, 0x3f07db0c3f146a33U, 0xbeac0ce2bed6a9b7U, 0xbef8508c3ee6475aU,
  0x80000000bf01594fU, 0xbedcf1f800000000U, 0x8000000080000000U, 0x0U,
  0xbed93bcebf16f857U, 0xbec8b4adbf16024fU, 0xbefdda1aU, 0x3f01ea78bf15ac95U,
  0x800000003ecd8392U, 0xbf321ad9bf0886c1U, 0xbf32f5313ecaa505U, 0x8000000000000000U,
  0x80000000U, 0xbf13cdffbeac8339U, 0x3f2ef47900000000U, 0x800000003f2b2bdeU,
  0x3f25b4f780000000U, 0x8000000080000000U, 0x3f0583b3bf12c655U, 0xbf1ad75d00000000U,
  0x3ece5472bf40da7fU, 0xbef2ae1780000000U, 0x3ecb4f6e3eb141f9U, 0x3f3265233f355671U,
  0x3f0d1e43bf33bd2cU, 0x3ede4926becf8851U, 0x3ecb94e4U, 0x3f13956600000000U,
  0x3f02d0c100000000U, 0xbf07cd6100000000U, 0xbed61f5b3f37c634U, 0x8000000000000000U,
  0xbe99dc0e00000000U, 0x8000000080000000U, 0x8000000000000000U, 0x8000000080000000U,
  0x3eb8d01e3ef40e0dU, 0xbf006b32U, 0xbf1847dc3ec5717fU, 0xbed18279U,
  0x3ebf00c980000000U, 0xbeac682600000000U, 0xbef65ff83ecba136U, 0xbebef57cU,
  0xbf1e4aa180000000U, 0x80000000U, 0xbea21fe13eefa295U, 0x800000003eac8ce3U,
  0x0U, 0x3f1d0af980000000U, 0x8000000000000000U, 0xbeef39fb00000000U,
  0xbec9acce80000000U, 0x8000000000000000U, 0xbef02e7980000000U, 0x3ea3eee680000000U,
  0x3ef7f9463ed91c49U, 0x800000003f1a28e1U, 0xbf1aa362bea1c077U, 0x3ef474723ec7c90dU,
  0xbecc0e193f1694efU, 0xbed017b780000000U, 0x800000003ec1d7adU, 0x8000000080000000U,
  0x8000000080000000U, 0xbf266573U, 0x3ee3030180000000U, 0x3f0fdad8bef0a0f9U,
  0xbec31861U, 0x8000000000000000U, 0xbf1c5737beb72155U, 0xbefc029180000000U,
  0x80000000U, 0xbefc7fd1U, 0xbf44940a00000000U, 0x800000003f40f294U,
  0x8000000000000000U, 0xbef3ac2600000000U, 0x3f25d43400000000U, 0xbf1849dd00000000U,
  0x800000003f418f00U, 0x8000000080000000U, 0xbf423bc480000000U, 0xbf2edeaaU,
  0x8000000080000000U, 0x3f36667980000000U, 0x3f47e3d2U, 0x80000000beb3a9a3U,
  0x0U, 0x80000000U, 0xbf16a8393f324d40U, 0x8000000000000000U,
  0x3f0d903080000000U, 0x3ee875be00000000U, 0xbf2b537380000000U, 0x3f2b9226U,
  0x3eeb0139bedd059bU, 0x800000003efd473eU, 0x3f233fd480000000U, 0x3eeb8f483f20ca27U,
  0xbf2550563f254ffbU, 0x3f435a4700000000U, 0x3f18dff63f21fc86U, 0x3f38cfda00000000U,
  0x3f23218eU, 0xbeffabe2bf306629U, 0xbf2bc1763ec0f6a4U, 0x800000003f0be92aU,
  0xbf340e3600000000U, 0x3f2a44943ed0119dU, 0xbf203773U, 0x3f2f4b7c80000000U,
  0x3eef443e00000000U, 0x8000000080000000U, 0x80000000U, 0x800000003f204a35U,
  0x8000000000000000U, 0x3f1cf6fd3ecd9b84U, 0xbf1c64f400000000U, 0x3f16336cU,
  0x3f3cb0ea00000000U, 0x3f07e680U, 0xbf29ba7e80000000U, 0xbf2dda9280000000U,
  0xbf0def2eU, 0x800000003f02b5f0U, 0xbf3a61643ecee12bU, 0x0U,
  0x0U, 0xbf1935c6befac71eU, 0x800000003f1cae56U, 0xbf46873a3f40451dU,
  0xbf02ba1bU, 0x0U, 0x0U, 0xbf0d34bdbf352c23U,
  0xbec1723880000000U, 0xbf0d00c380000000U, 0x8000000000000000U, 0xbf0e41eb80000000U,
  0x3f09db1e3f2e9204U, 0x8000000000000000U, 0xbefd9d1600000000U, 0xbf00ee88bf3ca59dU,
  0x8000000080000000U, 0x3ec2be80U, 0x3f1ecda600000000U, 0xbf3f441080000000U,
  0x80000000U, 0x80000000bf0ea5a8U, 0xbf27976280000000U, 0xbeaf7f73U,
  0x80000000bf197525U, 0xbf2e37993ebab9dfU, 0x3f0f4334bf3c3d04U, 0x80000000U,
  0xbeebb3bb00000000U, 0x3edcd1953ef48209U, 0xbf13020dbefeb4cbU, 0xbf00c1d3bf2166d5U,
  0x3ecf353c00000000U, 0x0U, 0x800000003ed62e04U, 0xbec00c5e00000000U,
  0x800000003eca3ad1U, 0xbf0b18193f176ffdU, 0x80000000bedf4bcfU, 0x0U,
  0xbf24f8edU, 0x0U, 0x3ecb1d7bU, 0x3ed1cc0780000000U,
  0xbf30267abef81c41U, 0xbef4af94bf008bdaU, 0x3f08c7d480000000U, 0x3f0773a0beccdcb6U,
  0x8000000080000000U, 0x0U, 0xbed0127400000000U, 0x3f12e76b00000000U,
  0x3f2f80a8U, 0x3ecbffe63f3cf88eU, 0xbf36c1943f3b5e69U, 0x8000000000000000U,
  0x8000000080000000U, 0xbf3a2f4a80000000U, 0x3ee9141380000000U, 0x80000000U,
  0xbf3194633f2fa798U, 0x800000003f3f8abdU, 0x3ef109d380000000U, 0xbf41c67a3f481287U,
  0xbf04309abec00d65U, 0xbee1b9d9bef0c162U, 0xbec9cd9cbf038b80U, 0x80000000bea7bd30U,
  0xbf1401b1be9bb721U, 0x3ecf60913ef432f1U, 0x8000000000000000U, 0x800000003ebe8b19U,
  0x3f01c7693ee3dba3U, 0x80000000becee3f3U, 0x3efe813100000000U, 0x80000000bed44ee8U,
  0xbe889919bf130e66U, 0xbe8e009bbeef4400U, 0x8000000080000000U, 0x3eb583d43eca2840U,
  0x3f0b970d3f1debdcU, 0x8000000080000000U, 0xbf113fabU, 0x3f0e2d7700000000U,
  0xbebedbc480000000U, 0x3ef6d4cb3f181e3aU, 0x80000000be9e47d2U, 0x3f1f3a5dU,
  0xbe9d4c6eU, 0x800000003f0b7cdcU, 0xbf0770d0bedf0e54U, 0x3f046c09beac7f90U,
  0xbefffe99U, 0x3ef5724480000000U, 0xbf04122c3ea6119fU, 0x3efa1ec3bea341bcU,
  0x0U, 0xbf708ee080000000U, 0xbf2cbe283eea0019U, 0xbf090d0e00000000U,
  0x800000003f29230cU, 0x800000003f1c5565U, 0x8000000080000000U, 0x3f0276dbbf00fba3U,
  0x3f161afbU, 0xbf19ad3900000000U, 0x80000000bf26dcf2U, 0xbf2e3bc7U,
  0xbf384950bf2b065eU, 0xbf32353e3f2b5133U, 0x3f07e39380000000U, 0xbf003d5e00000000U,
  0xbf0f1c7300000000U, 0x80000000U, 0x80000000U, 0x3f1b54cb80000000U,
  0x3f719478bf4bf116U, 0x80000000U, 0xbf27474f80000000U, 0x80000000bf6a5b65U,
  0x800000003f470d73U, 0x0U, 0xbf67b2143f65070cU, 0x80000000bf46fa1bU,
  0x3f632e84U, 0x800000003ee318adU, 0x3f70dd63befbb382U, 0x800000003f2701b7U,
  0x3ee9c03cbeba09baU, 0x8000000080000000U, 0x8000000080000000U, 0x3ec77c28U,
  0x3e92a64b3f08ec13U, 0x800000003f100445U, 0xbeb9a6cc00000000U, 0x800000003ef0cf13U,
  0xbee7dbc700000000U, 0x8000000080000000U, 0x3f185802be879efaU, 0xbf0850013f0b1508U,
  0x80000000befb566aU, 0xbed8c554bec9be64U, 0x0U, 0x3ecf38b5bf172a8cU,
  0xbea8ac163f052c16U, 0xbefd549000000000U, 0x3eaab07d80000000U, 0xbf04e5e0U,
  0x0U, 0x3ed83bb63f257714U, 0x8000000000000000U, 0x3ef1c156bebca4b2U,
  0xbed422e9be9eef8aU, 0xbeeb450780000000U, 0x0U, 0x80000000bedb963bU,
  0x8000000080000000U, 0x3f1e8ebc00000000U, 0x3eed185480000000U, 0x3f106ccd3eae3df2U,
  0xbf67cee33f25ef0dU, 0xbf15933500000000U, 0xbf0f3bf180000000U, 0xbf1d710680000000U,
  0xbf5aaa7bU, 0x3f19a58700000000U, 0x3ef9fa4dbf11ec84U, 0x3f41dc5580000000U,
  0x3ed2207ebef867baU, 0xbef1c704U, 0xbf27a9a23f4af3f4U, 0x80000000bf16b5b3U,
  0x80000000bf35beb7U, 0x80000000bf69af43U, 0x3f144ba700000000U, 0x3f537f5500000000U,
  0x3ee3a4ba00000000U, 0x3ee4095b00000000U, 0x3f40cc3600000000U, 0x8000000080000000U,
  0x800000003f33aaf2U, 0x80000000bf2e36d1U, 0x3f2b5629bf1ea7a9U, 0x0U,
  0xbf3470e400000000U, 0x8000000080000000U, 0x80000000U, 0x3f1a036780000000U,
  0xbef77406U, 0x800000003f2db9d4U, 0x800000003f4ad380U, 0xbf0c37503f108d59U,
  0xbf266e593f53a122U, 0x80000000U, 0xbf30c23bU, 0x3f3af2e980000000U,
  0x8000000000000000U, 0xbf4eeb96U, 0xbf2f302c3ee5b736U, 0xbf31bc8dbf219998U,
  0x3edc48eb80000000U, 0x0U, 0x80000000bf371e9bU, 0xbeef7dc200000000U,
  0x3f55bd7780000000U, 0x3f5890c3U, 0xbef26a5300000000U, 0xbf2f034280000000U,
  0x0U, 0x3f4d0315bf55cf0dU, 0xbf5e046a00000000U, 0x3f02b5bb00000000U,
  0x80000000U, 0xbf39ac3a00000000U, 0xbf22f875bf2a2728U, 0x800000003f474664U,
  0x80000000bf32cdf9U, 0x80000000U, 0x3f01289480000000U, 0xbed525fa00000000U,
  0x80000000bf080180U, 0xbf0ab9e800000000U, 0x3ef541aa80000000U, 0x8000000000000000U,
  0x3f052c2c3ef6489bU, 0x80000000U, 0x0U, 0xbedeb6843ea9bb0fU,
  0x3e8e735d00000000U, 0x3eccfd5980000000U, 0x3eff255d00000000U, 0xbea1e63680000000U,
  0x3ea799b1U, 0x80000000U, 0x3ee3b53a3ede9138U, 0x3eb26ec7U,
  0x80000000U, 0xbed29f73bf0743ffU, 0x3f10114e3ede3e9eU, 0x3e8e2e523eabe7b8U,
  0x3ed9f0dc80000000U, 0xbf062a98bed3210bU, 0x0U, 0x80000000U,
  0x3ecf5d2c00000000U, 0xbf02212600000000U, 0xbf04abfb3f17bf32U, 0x80000000beb72459U,
  0x3e931e5f80000000U, 0xbea5a2bbU, 0x8000000080000000U, 0x3f1725703f0062cbU,
  0xbedee07cU, 0x3ef1bbe680000000U, 0x80000000bf1157a4U, 0xbead9ccd3f0fec84U,
  0x3ead32493eac8b41U, 0x3eec6144U, 0xbf175c41beae5c2fU, 0x8000000080000000U,
  0xbf0144ec80000000U, 0xbf03d9b8U, 0x8000000080000000U, 0x3eba1ce7U,
  0xbe947633becb30abU, 0xbf04df35U, 0x3f05a9f8be9cc3dfU, 0xbeff925980000000U,
  0xbeed0b4680000000U, 0x3f13301e3f11bbadU, 0xbf0a3bc700000000U, 0xbee6b0e980000000U,
  0x0U, 0xbea10822bf00aa46U, 0xbede61e43edacf64U, 0x800000003ece9d41U,
  0xbebd07e300000000U, 0xbea1759b3eeca324U, 0x3eab06ee00000000U, 0x3f0f5c1b80000000U,
  0xbf0e5c34bef3d0c6U, 0x80000000bf12261fU, 0x3efd12f7bf09c2c4U, 0xbec0489d80000000U,
  0xbf1b7d4700000000U, 0x3f1a70a43e91a94eU, 0x3f01b8af3ecaf635U, 0x8000000000000000U,
  0xbee59d3d3ebf5c04U, 0x0U, 0x8000000000000000U, 0x0U,
  0x0U, 0x800000003ecf2faeU, 0x800000003ef1a612U, 0x3f00750000000000U,
  0x80000000bf10b80dU, 0x80000000U, 0x80000000bf24acfeU, 0x3ea01a6380000000U,
  0x3eb817223ec3398eU, 0x3eb24b0380000000U, 0x800000003eebdc6eU, 0x8000000000000000U,
  0x80000000bf0f71cdU, 0x8000000080000000U, 0x80000000U, 0x0U,
  0x8000000080000000U, 0xbed56c353e7e574bU, 0x3edb7f8180000000U, 0x800000003f132458U,
  0xbeacc8dc00000000U, 0x3f07827fbebc3b37U, 0x3ea214093ef4608aU, 0x800000003ee590e0U,
  0x8000000080000000U, 0x800000003f18df41U, 0xbede23a43ef7c35fU, 0xbf07ddb3U,
  0x8000000080000000U, 0x80000000beed921cU, 0x3eed84453efd5f27U, 0xbf17ed623f244371U,
  0xbf3bb0f9U, 0x3ededfb5bf230904U, 0xbef34565U, 0xbec646d280000000U,
  0xbf27621680000000U, 0x80000000bf3da4faU, 0x3f1a313bbeed1289U, 0x8000000080000000U,
  0x80000000U, 0x0U, 0xbf3b54553ef075e6U, 0x800000003f0a3eb4U,
  0xbf0635bbbf47d480U, 0xbf1561a6U, 0x800000003ebbe87bU, 0xbf3036403f3d84a3U,
  0x8000000080000000U, 0x3f1eb35680000000U, 0x3f4646e700000000U, 0x3f497e0300000000U,
  0x80000000bf51ba2dU, 0x3f26855ebf48838dU, 0xbf1f43d9bf03cca7U, 0x0U,
  0xbf201827bee60b10U, 0x80000000U, 0x3f469cfc3f0a9ab1U, 0x800000003f3da3a4U,
  0x8000000080000000U, 0xbf4d975eU, 0x3f25c0d63f482699U, 0xbf10a580U,
  0x80000000U, 0xbf7fec29U, 0x3f2abc9eU, 0xbf75d05700000000U,
  0x3f4eeaa1U, 0x3f4589843f0f09d3U, 0xbed6987d00000000U, 0x3f5b59fd3f5e0fe6U,
  0xbefeb262bf300d53U, 0x3f28e47dU, 0xbf15a27dbf4e7e39U, 0x0U,
  0x3f21c012bf54b7f5U, 0x3f19cd58bf626857U, 0x8000000080000000U, 0x8000000080000000U,
  0x8000000000000000U, 0x80000000bf403a89U, 0x3f4a5c8e00000000U, 0x3ed1e3523f4e9b4fU,
  0x80000000bf49f2ceU, 0x3f09112680000000U, 0x8000000080000000U, 0x3f3eda1a80000000U,
  0xbf3e700780000000U, 0x0U, 0x800000003f321034U, 0x8000000000000000U,
  0x8000000000000000U, 0xbed759403f2e4b92U, 0x3f0c574d00000000U, 0x0U,
  0x3f44b9393f44ad2dU, 0xbf01a3cabf3ba913U, 0x3f06b958bf2d36a2U, 0x3f30cb3d00000000U,
  0x80000000bf2d0e0dU, 0x3f2f77c3bf428fc0U, 0xbf036094U, 0xbf1feb20U,
  0x3f2cb1c280000000U, 0x800000003f098860U, 0x80000000U, 0x8000000080000000U,
  0x80000000bf1db2c9U, 0xbf1752bbbf27a3ffU, 0x3ecb7dcbbee78eedU, 0x8000000000000000U,
  0x80000000U, 0xbf2a754480000000U, 0xbeccff0080000000U, 0x3f3004a6U,
  0x3f281e5dU, 0xbef652413f50d737U, 0x3f17f8a980000000U, 0x3ef79b10U,
  0x80000000U, 0x3eb760703f3039edU, 0xbf04525e3f056e7cU, 0x3f31a02600000000U,
  0x3e9342e0bf11917aU, 0x3f04efcf00000000U, 0xbebaa0c83ebd441fU, 0x3f0a6f01bed8b53eU,
  0x8000000080000000U, 0xbec7108280000000U, 0x3f1040a200000000U, 0xbea4f645bebd22deU,
  0x800000003eb74535U, 0x0U, 0x3ebed7c4bf15b4d9U, 0x3ee132ab00000000U,
  0x3edc8c483eb80b7dU, 0x3f1aee9b3f15a6bbU, 0x80000000U, 0xbec2a7ac00000000U,
  0x0U, 0xbf1014f880000000U, 0xbef85ae080000000U, 0xbe963cd400000000U,
  0x0U, 0x3f166e5200000000U, 0x800000003f036ad3U, 0x80000000U,
  0x8000000080000000U, 0x3eb333a180000000U, 0xbf08f93b3f0cc589U, 0xbf15fd2dU,
  0xbec3d5b9U, 0x3efe385ebecea255U, 0x8000000080000000U, 0xbee39debbefa2581U,
  0x3f3a1090U, 0x8000000000000000U, 0x80000000bf11f00bU, 0x800000003f12a1c9U,
  0xbee03ab0U, 0x3f0fa07a00000000U, 0x80000000U, 0x8000000080000000U,
  0x800000003f290348U, 0x80000000U, 0x8000000080000000U, 0x3f28698700000000U,
  0x3f28fbd280000000U, 0x80000000U, 0x3ef4d753bf23bfe7U, 0xbf0039f63efaec6aU,
  0xbf37632e80000000U, 0x3eca427dbeca364dU, 0x8000000080000000U, 0xbf2345bdU,
  0xbf187bfcU, 0x80000000U, 0xbf3c4a4f3f220723U, 0xbecb1173bee34c7fU,
  0xbf3904fb80000000U, 0xbecfd7a880000000U, 0xbf3d5109bedd0154U, 0xbed3f7283f42672aU,
  0x0U, 0x3f20a0f080000000U, 0x3ed3605ebef98206U, 0x800000003f30dfa0U,
  0xbed8cc7cbf048a31U, 0x80000000U, 0x8000000000000000U, 0x0U,
  0xbf0f92d6bf003931U, 0x3f01fad5bf12e3b3U, 0x8000000000000000U, 0x8000000080000000U,
  0x8000000000000000U, 0xbec825d0beba4e19U, 0x3ef0c8dd80000000U, 0x8000000080000000U,
  0x8000000000000000U, 0x3eea1b4cU, 0x8000000000000000U, 0xbed0c23aU,
  0x3e94b0e8U, 0x3f00abb0U, 0x80000000U, 0xbe9da79380000000U,
  0xbf1b711d3ef9d644U, 0x3eb46366bef4e76eU, 0x80000000U, 0x80000000be93177eU,
  0x3ea1fa4280000000U, 0x3e9c3ce0U, 0x80000000be8fff05U, 0xbf0796da80000000U,
  0xbe9fc3f83ea4e8bfU, 0x80000000be93e621U, 0xbf0d8327befeef79U, 0xbee801c800000000U,
  0x3ec15cb5U, 0xbf1636db00000000U, 0x3f09114d00000000U, 0x80000000bee9adeaU,
  0x3ebc14c0U, 0xbeb0074b3efc6c68U, 0x3ed8bbb7bf0ed283U, 0xbf152511bf031724U,
  0xbf14e6643eba3a74U, 0x80000000bef25a97U, 0xbef3b59a00000000U, 0x80000000bed408e7U,
  0xbeefa3a300000000U, 0x3efc485e00000000U, 0x3ecc356abefc3e58U, 0xbeeae8b6U,
  0x3ee4cfec3ead9d99U, 0x3ea4c744U, 0x0U, 0x3eaf633a3f080540U,
  0xbed409c200000000U, 0x3efe5cce3e94c182U, 0x80000000bf1323d8U, 0x3f1af7aa00000000U,
  0x3eda962700000000U, 0x3ec6bd8a80000000U, 0x3f1413f83eefb8c1U, 0x8000000080000000U,
  0x8000000000000000U, 0xbee6483cbeef719bU, 0xbeff167200000000U, 0xbec523cb00000000U,
  0x0U, 0x8000000080000000U, 0x80000000bf1bdcf4U, 0x0U,
  0x3f0c9fbabf3cc2f8U, 0xbf01933eU, 0xbf032ebd3f1be2ebU, 0x3f58eebc80000000U,
  0x8000000080000000U, 0xbef12f31bf361be3U, 0xbf3fbdeebebde5e6U, 0x800000003ef4d42eU,
  0xbef1e54fbf4c0de8U, 0x3f306dfebf3cfcabU, 0x8000000080000000U, 0xbf21dbeb3eec7ab3U,
  0x3f2b70ff80000000U, 0xbf5017163f6092d2U, 0x8000000000000000U, 0x80000000bee7b03cU,
  0x8000000080000000U, 0x3f4a7d013f4eb141U, 0xbf448d9fbef086afU, 0x80000000U,
  0xbf2b100680000000U, 0x3ee01f1a3f210ef3U, 0x3f578b3fU, 0xbf380cab80000000U,
  0x3ed14f713f0a7eacU, 0x3f414c01bf54ca64U, 0x3f04388300000000U, 0x8000000000000000U,
  0x80000000bed4aae0U, 0xbf0a36bdU, 0x800000003f024308U, 0xbf14e0e580000000U,
  0xbf1c07c280000000U, 0x8000000000000000U, 0xbf2d93a100000000U, 0xbeaf515f80000000U,
  0x3f188bc980000000U, 0x3eb69b53bf252487U, 0xbf35c7b03ef40894U, 0x3f25ab63U,
  0xbf11a5dc00000000U, 0x8000000080000000U, 0xbf14b36a80000000U, 0xbf3749deU,
  0x3f06d2bbbea0648eU, 0x3eaac0c180000000U, 0x8000000080000000U, 0x800000003ed9e448U,
  0xbf095fc600000000U, 0x3eb05f8c80000000U, 0xbee6b48eU, 0x80000000becb7391U,
  0xbf02d50500000000U, 0x0U, 0x3f1685003eb9d213U, 0x80000000bed18e47U,
  0x8000000000000000U, 0x3f101eae00000000U, 0x0U, 0xbf0699e93f236c50U,
  0x3f3f4fffbf1abdf6U, 0xbf35354780000000U, 0x3ef04477bf451251U, 0x3f44c150U,
  0x8000000000000000U, 0x3f37e93b80000000U, 0x8000000080000000U, 0xbf33f1aa00000000U,
  0x8000000080000000U, 0xbeae61f0bf2c8d56U, 0xbf22459d3ebd4399U, 0xbf4b1644U,
  0xbf42fd57bf1503c9U, 0x3f1eef063ef637deU, 0x3f05d4b93f31c4cbU, 0x80000000U,
  0xbeb0c30500000000U, 0xbf263513bf47aa4dU, 0x3f1c487c80000000U, 0x3f2c700680000000U,
  0xbf097441U, 0x3f282945bed92f41U, 0x80000000U, 0x3f3b7f69bf37b5d1U,
  0x8000000000000000U, 0xbeda455480000000U, 0x800000003eb63d0aU, 0xbec88c8500000000U,
  0x3ecffcc280000000U, 0xbeaa0bad80000000U, 0x8000000000000000U, 0x3f20b779bf01e639U,
  0x3ef58ff680000000U, 0xbf0347ae80000000U, 0xbf0d052400000000U, 0x3f2b82dd80000000U,
  0x3f401f3980000000U, 0x800000003ed6b604U, 0xbf04c26eU, 0x3f0b6f3000000000U,
  0x3ef567ddbf3756c8U, 0x3f3964a7U, 0xbf15cfc7U, 0x8000000000000000U,
  0x8000000080000000U, 0x0U, 0x80000000bf352e90U, 0x8000000080000000U,
  0xbedd614cbf424358U, 0x3f1d667bbf2d083dU, 0x3f204b0b3f015835U, 0x3ee057bb80000000U,
  0x3f5b8cdc3f19804cU, 0xbf53170e3f146150U, 0xbf1aae7b00000000U, 0x0U,
  0x800000003ee95683U, 0x800000003f234fc0U, 0xbf01cb59U, 0x80000000bf2feb47U,
  0x3f39fb27U, 0x800000003ee2f29bU, 0xbf443196U, 0x0U,
  0x0U, 0xbf65eec3U, 0x8000000000000000U, 0xbf80b1debf306742U,
  0x3f28402280000000U, 0x80000000U, 0x8000000080000000U, 0x3f184e55U,
  0x3f779c103f86705cU, 0xbf73a70780000000U, 0x8000000000000000U, 0x3f0345e93f3078c8U,
  0x3f68ee2580000000U, 0x3f05fae7U, 0x3f1b4da100000000U, 0xbf18208600000000U,
  0x3f86419dbf117fb5U, 0x3f56aa343f43b828U, 0x80000000bf614424U, 0x3f562773U,
  0xbf52051dU, 0x8000000080000000U, 0x80000000U, 0xbf050b4c00000000U,
  0xbf143bdd00000000U, 0x80000000bf30cbb1U, 0x3f28378480000000U, 0x3f5cd3c6U,
  0xbf8278deU, 0x8000000080000000U, 0x800000003f3dc707U, 0x8000000000000000U,
  0x800000003f350a28U, 0xbf1847babf42d7e9U, 0x3f46794000000000U, 0x8000000000000000U,
  0xbec02c7c00000000U, 0x3ef389c03f1a2420U, 0x0U, 0x3ee92255bee5cac2U,
  0x3f1e2e7800000000U, 0xbf0eb837U, 0x80000000U, 0x3f36b6ce00000000U,
  0x800000003f40d74bU, 0x80000000U, 0xbeb650fe3f19fd0aU, 0x800000003eaa6694U,
  0xbef3ef8780000000U, 0xbf2f31413f0dffa4U, 0x3f20189bbf05daccU, 0xbf15b3a9U,
  0x800000003f450cd2U, 0xbed3a63900000000U, 0xbeedf2f200000000U, 0x8000000080000000U,
  0x800000003f18fd2dU, 0x8000000000000000U, 0xbf28f904bf288c64U, 0x3f0606adbf1c8b9eU,
  0x0U, 0x3f2d2a6e3edb4bd3U, 0x80000000bee92ab3U, 0xbf38dd4c00000000U,
  0x3ec8e1fb00000000U, 0x8000000080000000U, 0x3eca8e803ef5043fU, 0xbeadec3bbeeee778U,
  0xbf1bb269bf02227bU, 0xbed7eda4U, 0xbea9648b00000000U, 0x3ead2e99bf1a92baU,
  0x3eefc133bf1d624dU, 0xbea3ed0f80000000U, 0xbf1bca2ebf035dc2U, 0xbf0d6b1280000000U,
  0x3eb8480400000000U, 0x3f1ee7a300000000U, 0x800000003f03dbbdU, 0x3ee7918bbf1d0f39U,
  0x8000000080000000U, 0x800000003f18c30fU, 0x8000000000000000U, 0x3ee87a8f3f156e66U,
  0xbeee6cb000000000U, 0xbf0ef7ebbef6bc5eU, 0x3f07281e3efdd936U, 0x3eea30e5be96acf8U,
  0x8000000000000000U, 0x3ee13ed500000000U, 0x3edfc70680000000U, 0x3eee73b880000000U,
  0x0U, 0xbf0dc9cd80000000U, 0xbf091d5b3e9ecddfU, 0x3ecbf7b080000000U,
  0x3ee4ae9500000000U, 0x8000000080000000U, 0x3ee9500b00000000U, 0x3f0ef94dU,
  0x0U, 0xbec2b03800000000U, 0x3f07673d80000000U, 0x3ee5cfb700000000U,
  0xbf0ce2d500000000U, 0x8000000000000000U, 0xbe90a4e93ec6ffc5U, 0x3f151a09be9fff56U,
  0x3ee25c02beb9fa9eU, 0x8000000080000000U, 0x80000000bf080f92U, 0xbf19ed3580000000U,
  0xbf0d65ca80000000U, 0xbef388f3U, 0x80000000bf00b3b4U, 0x3eca67413eae900aU,
  0x8000000080000000U, 0x3ed72a2f00000000U, 0x0U, 0x3ee829c480000000U,
  0xbec06be680000000U, 0xbeb508b880000000U, 0x3ebe7f74be9fe175U, 0x8000000080000000U,
  0x3eccf605bea01ce7U, 0x3eda348f80000000U, 0x3ea41736U, 0x3eca92beU,
  0xbeec7c5580000000U, 0x800000003efece9cU, 0x3e9b57d6bf1969a4U, 0xbebc53aabf091250U,
  0xbf015d06bef04e95U, 0xbec2442200000000U, 0x3f0f90923ec90ea9U, 0x3f01afdbbeafe628U,
  0xbf14638b00000000U, 0x8000000000000000U, 0xbea1202fU, 0x3f21b89b80000000U,
  0x8000000000000000U, 0x3f05a1a880000000U, 0x80000000bf0b4a07U, 0xbf2470aaU,
  0x80000000beef8100U, 0x8000000000000000U, 0xbeb10df53ec29733U, 0x80000000bf069b5eU,
  0xbf083bd380000000U, 0xbe9cc7a480000000U, 0x80000000bef53b8aU, 0x800000003ef29e73U,
  0xbec8359200000000U, 0x800000003ea59808U, 0x80000000bf0aa1efU, 0xbef9b41200000000U,
  0x0U, 0x800000003f09bd7cU, 0x80000000bebcffcdU, 0x3efa1aa4beb962b7U,
  0xbf30834dU, 0x8000000000000000U, 0xbf24e451bf24cd8dU, 0xbecc5cfb3f2a8e65U,
  0x3f2bac08U, 0x8000000000000000U, 0x3ec70db23f18f4e7U, 0x3f304a3400000000U,
  0xbf2f46e03f399e5fU, 0x8000000080000000U, 0x8000000000000000U, 0xbeeee06b80000000U,
  0x3f01110100000000U, 0x3f2f37cf3f2c21efU, 0x80000000bf0e00bdU, 0x800000003ec3ed46U,
  0xbed2766e00000000U, 0x0U, 0xbf02f605bf2cf2e3U, 0x3eed1eea3f05658aU,
  0x8000000080000000U, 0x3edaf60aU, 0x800000003eeee40aU, 0x3f11d3d43f24c0acU,
  0xbeeaa03e3efce0b6U, 0x3f23175d3f30a944U, 0xbf10d5cf3efc4fbeU, 0x0U,
  0x8000000000000000U, 0x800000003f371f87U, 0x80000000U, 0xbef50de73eb07ef5U,
  0x3f03bb55bee21e4fU, 0x3edc08fcbedd299cU, 0xbf10daadU, 0xbf1a7e98beb96c0bU,
  0xbf032e0600000000U, 0xbebe59e000000000U, 0x80000000bf0300a4U, 0x8000000080000000U,
  0x80000000bf0a966eU, 0x3ee44bc4U, 0x800000003ebaa2c7U, 0xbf0749d700000000U,
  0x3f13c8bebf0d48dcU, 0x3eefecb63ecac8b4U, 0x8000000080000000U, 0x3f16f667U,
  0x3ecd4ea13f24aa6eU, 0x80000000bef646dfU, 0x80000000bef52479U, 0xbf068a2900000000U,
  0x0U, 0xbec4399a3f2c7b4aU, 0x8000000000000000U, 0x3ee14aa53f28ceb8U,
  0xbee8f3b93eccba46U, 0xbee0023a3ed04d5eU, 0x3f0fdfd53f09061eU, 0xbf0f2bf500000000U,
  0xbf0dc19900000000U, 0x8000000080000000U, 0xbeb03dd7bee14cc9U, 0xbedf9eb0bea8d1c0U,
  0xbf0f0f2f3f09fddaU, 0x8000000000000000U, 0xbf1ff330befa8f89U, 0x3f02f5c800000000U,
  0x80000000U, 0xbf4240f5bef53560U, 0xbf1ca545bf3d66b1U, 0xbf4dcc2400000000U,
  0x3f3960fdbf3b3269U, 0x3f24f08280000000U, 0x3efdbce280000000U, 0x3f0cd1c8U,
  0xbf36915980000000U, 0x3f090b07beee097cU, 0x3f21e214bf1b4606U, 0xbf0bffddbf5c9b9aU,
  0x3f170b0d3f0dc58aU, 0x0U, 0xbf10f28cbf108b9dU, 0xbef5e258bf471c1dU,
  0x3f2dbbf8U, 0xbf2f1977bf2bc162U, 0x80000000U, 0xbf0fdb77bf13c00bU,
  0x3f24c94880000000U, 0x3f30ecf33f017b75U, 0x3ec83b1400000000U, 0x800000003f6a90baU,
  0x8000000080000000U, 0x8000000080000000U, 0x3f2b7a08U, 0xbf4681fe3f173db3U,
  0x8000000080000000U, 0x80000000U, 0xbeb9fc8c80000000U, 0xbeb75eb900000000U,
  0x3e940d8080000000U, 0x3ed62d0680000000U, 0xbe828b1c00000000U, 0x3ea50b9180000000U,
  0x3e6e8189U, 0x3e685216beae61a7U, 0xbe95c5c03ecc5463U, 0x80000000U,
  0xbe457d9300000000U, 0x8000000080000000U, 0x3e316c7900000000U, 0x3ead49303ed8a1a4U,
  0x3e761e0900000000U, 0x3e41af3bU, 0xbe7a7245U, 0x3e696fd100000000U,
  0x3e7b8ae73eb7483fU, 0x3ead3003U, 0x3ea1a6d83e925f0bU, 0xbe66e81dbeb20e10U,
  0xbed0359f00000000U, 0x0U, 0x80000000be76ab3cU, 0xbeacab7880000000U,
  0x3eabe2caU, 0x3e9bb3113e7f37ecU, 0xbeb9ea423ec0b6f4U, 0xbea6cc3dbebcfc66U,
  0x800000003f04de55U, 0x8000000000000000U, 0xbf18e05abebb8a3eU, 0x3ea2d51a80000000U,
  0x3eb05dfeU, 0x3f1e031d3ee63634U, 0xbef683eebf088a32U, 0x3ecbbef53f0ec41aU,
  0x3ede2fad3f012237U, 0x3f0e7cbb3ef47fe3U, 0x8000000080000000U, 0xbefa52743ec19378U,
  0xbf00994eU, 0x3ee63dec80000000U, 0x8000000000000000U, 0x3ec57a7d80000000U,
  0x80000000bec5a8adU, 0xbf07e21cbf15a36cU, 0x3ea0337500000000U, 0xbe9eed2280000000U,
  0x8000000080000000U, 0x800000003ef5281cU, 0x80000000bf113b2aU, 0xbeb826b700000000U,
  0xbf03255bbed996abU, 0x80000000bed17ebdU, 0x800000003ecea41cU, 0xbebb29523f0ebd1eU,
  0x800000003ead1b21U, 0xbe85bcf33f1ac451U, 0xbec36abf80000000U, 0x3f029aac00000000U,
  0x80000000U, 0x800000003f541cadU, 0x8000000080000000U, 0x3f191edb80000000U,
  0x3f55de88U, 0x0U, 0x3f4ecb9cU, 0xbef59e1f3efb40e7U,
  0x800000003f3553ecU, 0x80000000bf12efe8U, 0x3f1777923f5f9954U, 0x3efcb4e800000000U,
  0xbf3eb58b3f308abdU, 0x3ef7d2e000000000U, 0x800000003f215341U, 0xbf16c17cU,
  0x80000000bf03ca1bU, 0xbf58dbad80000000U, 0x3f1bfc1e00000000U, 0x3f3c0e453ef36d1bU,
